﻿<?xml version="1.0" encoding="utf-8"?>
<Root>
  <ActivationFunctions>
    <Fn id="0" name="SteepenedSigmoid" prob="1" />
  </ActivationFunctions>
  <Networks>
    <Network id="114058" birthGen="2845" fitness="33.808895111083984">
      <Nodes>
        <Node type="bias" id="0" />
        <Node type="in" id="1" />
        <Node type="in" id="2" />
        <Node type="in" id="3" />
        <Node type="in" id="4" />
        <Node type="in" id="5" />
        <Node type="out" id="6" />
        <Node type="out" id="7" />
        <Node type="out" id="8" />
        <Node type="out" id="9" />
        <Node type="out" id="10" />
        <Node type="hid" id="170" />
        <Node type="hid" id="368" />
        <Node type="hid" id="474" />
        <Node type="hid" id="569" />
        <Node type="hid" id="582" />
        <Node type="hid" id="666" />
        <Node type="hid" id="721" />
        <Node type="hid" id="819" />
        <Node type="hid" id="893" />
        <Node type="hid" id="919" />
        <Node type="hid" id="1429" />
        <Node type="hid" id="1531" />
      </Nodes>
      <Connections>
        <Con id="86" src="3" tgt="8" wght="-5" />
        <Con id="98" src="0" tgt="9" wght="1.4991334094058419" />
        <Con id="106" src="1" tgt="8" wght="3.3706253580749035" />
        <Con id="147" src="3" tgt="9" wght="3.9609751657549421" />
        <Con id="148" src="2" tgt="9" wght="3.2971093633479" />
        <Con id="150" src="5" tgt="6" wght="-3.5356064694971856" />
        <Con id="151" src="0" tgt="7" wght="-1.6655904509339154" />
        <Con id="152" src="1" tgt="7" wght="-1.7112828328465177" />
        <Con id="153" src="1" tgt="9" wght="-5" />
        <Con id="154" src="3" tgt="6" wght="4.9189043181237508" />
        <Con id="156" src="5" tgt="8" wght="2.1513738228872494" />
        <Con id="160" src="0" tgt="6" wght="5" />
        <Con id="162" src="2" tgt="6" wght="-0.35327004554201885" />
        <Con id="163" src="4" tgt="9" wght="3.9706924845525577" />
        <Con id="164" src="5" tgt="7" wght="1.3968352841970657" />
        <Con id="166" src="4" tgt="6" wght="-1.8525127461180091" />
        <Con id="172" src="170" tgt="8" wght="-2.0396642039232038" />
        <Con id="173" src="1" tgt="10" wght="1.2885585947572935" />
        <Con id="174" src="170" tgt="6" wght="-1.4092970127239823" />
        <Con id="178" src="170" tgt="9" wght="3.3025713370596321" />
        <Con id="179" src="1" tgt="6" wght="3.8949858956910468" />
        <Con id="184" src="5" tgt="9" wght="-4.6684593008831143" />
        <Con id="185" src="170" tgt="7" wght="-2.3325845047964395" />
        <Con id="187" src="3" tgt="10" wght="-3.4883386613038532" />
        <Con id="188" src="170" tgt="10" wght="-2.7544784879863018" />
        <Con id="189" src="0" tgt="10" wght="-2.0998421091879624" />
        <Con id="190" src="5" tgt="10" wght="-4.9988764852497853" />
        <Con id="194" src="4" tgt="10" wght="4.9634085463975239" />
        <Con id="322" src="3" tgt="170" wght="0.16197008191594442" />
        <Con id="327" src="4" tgt="170" wght="4.8603708715715923" />
        <Con id="369" src="1" tgt="368" wght="-1.2877999034370355" />
        <Con id="371" src="368" tgt="10" wght="4.9716802221214156" />
        <Con id="383" src="368" tgt="9" wght="3.9258859817805725" />
        <Con id="385" src="368" tgt="7" wght="0.31560590026525226" />
        <Con id="389" src="368" tgt="170" wght="2.9108475195243955" />
        <Con id="475" src="4" tgt="474" wght="-3.8308513174735945" />
        <Con id="476" src="474" tgt="8" wght="-0.50796818880112227" />
        <Con id="483" src="474" tgt="9" wght="-4.3698605145233307" />
        <Con id="498" src="4" tgt="368" wght="2.8150134350292353" />
        <Con id="499" src="3" tgt="368" wght="1.1093231020310648" />
        <Con id="500" src="5" tgt="368" wght="4.72942973488287" />
        <Con id="506" src="2" tgt="368" wght="-4.005064588856377" />
        <Con id="532" src="2" tgt="474" wght="3.2607317693738218" />
        <Con id="545" src="1" tgt="474" wght="-5" />
        <Con id="570" src="2" tgt="569" wght="-2.1568713249758362" />
        <Con id="571" src="569" tgt="7" wght="1.9602131930223952" />
        <Con id="576" src="569" tgt="9" wght="0.071671951839028261" />
        <Con id="583" src="4" tgt="582" wght="-4.0444836728511815" />
        <Con id="608" src="3" tgt="569" wght="3.5446005348337439" />
        <Con id="609" src="170" tgt="582" wght="3.3042173989090218" />
        <Con id="614" src="0" tgt="582" wght="-0.50391464641368611" />
        <Con id="615" src="569" tgt="582" wght="-3.694298627739498" />
        <Con id="618" src="1" tgt="569" wght="3.6912343372454544" />
        <Con id="619" src="474" tgt="582" wght="3.7163674316773281" />
        <Con id="646" src="582" tgt="10" wght="-3.7390061022944545" />
        <Con id="647" src="0" tgt="569" wght="-3.7117558318858106" />
        <Con id="651" src="2" tgt="7" wght="3.9031262910018594" />
        <Con id="668" src="666" tgt="8" wght="3.242713812644384" />
        <Con id="709" src="666" tgt="6" wght="4.6051050518067012" />
        <Con id="717" src="170" tgt="666" wght="1.3778680456448229" />
        <Con id="720" src="666" tgt="10" wght="-4.3965732585638762" />
        <Con id="722" src="2" tgt="721" wght="0.18356895441343685" />
        <Con id="723" src="721" tgt="170" wght="3.0733974743634462" />
        <Con id="737" src="0" tgt="666" wght="-4.5045406402815971" />
        <Con id="742" src="569" tgt="721" wght="2.5316833915078236" />
        <Con id="764" src="721" tgt="666" wght="5" />
        <Con id="771" src="721" tgt="368" wght="-3.26084651593497" />
        <Con id="800" src="721" tgt="474" wght="-0.74721623694877048" />
        <Con id="820" src="0" tgt="819" wght="-2.5878734483398111" />
        <Con id="823" src="569" tgt="819" wght="-3.157398896291852" />
        <Con id="859" src="819" tgt="8" wght="-3.5225970120644994" />
        <Con id="894" src="368" tgt="893" wght="-0.82244035761573331" />
        <Con id="895" src="893" tgt="8" wght="1.5037385162510095" />
        <Con id="899" src="819" tgt="7" wght="-2.2119849133064631" />
        <Con id="920" src="4" tgt="919" wght="-2.9979627736748835" />
        <Con id="921" src="919" tgt="666" wght="-2.3984354483424535" />
        <Con id="929" src="0" tgt="893" wght="1.8408783838770864" />
        <Con id="930" src="893" tgt="666" wght="-2.9178549986151729" />
        <Con id="931" src="893" tgt="474" wght="-5" />
        <Con id="945" src="893" tgt="170" wght="2.7547498373314738" />
        <Con id="958" src="919" tgt="6" wght="-1.2456256998854882" />
        <Con id="959" src="3" tgt="893" wght="4.7283095571929445" />
        <Con id="968" src="919" tgt="569" wght="2.90453614667058" />
        <Con id="972" src="919" tgt="721" wght="2.3535674427062108" />
        <Con id="983" src="819" tgt="9" wght="-0.50730544370438446" />
        <Con id="1013" src="919" tgt="10" wght="-1.8474767681342918" />
        <Con id="1014" src="919" tgt="7" wght="-3.3349166126581093" />
        <Con id="1029" src="5" tgt="893" wght="4.1132695383297762" />
        <Con id="1039" src="893" tgt="7" wght="4.0350663596113128" />
        <Con id="1057" src="893" tgt="6" wght="2.0186286047101021" />
        <Con id="1068" src="3" tgt="666" wght="4.9778071753243207" />
        <Con id="1075" src="3" tgt="819" wght="-0.94905553937048648" />
        <Con id="1085" src="721" tgt="819" wght="0.64132506027817726" />
        <Con id="1121" src="1" tgt="893" wght="0.68073102389379758" />
        <Con id="1430" src="819" tgt="1429" wght="-1.9808145942062709" />
        <Con id="1431" src="1429" tgt="368" wght="3.9179850680256769" />
        <Con id="1463" src="3" tgt="919" wght="0.75953963584046857" />
        <Con id="1510" src="1429" tgt="10" wght="1.9275888381525874" />
        <Con id="1532" src="4" tgt="1531" wght="1.6022428771194428" />
        <Con id="1533" src="1531" tgt="7" wght="4.9863845072068154" />
        <Con id="1583" src="5" tgt="1429" wght="-4.6038059238344431" />
        <Con id="1584" src="1531" tgt="170" wght="-5" />
        <Con id="1623" src="893" tgt="1531" wght="1.1116799769541983" />
      </Connections>
    </Network>
  </Networks>
</Root>