﻿<?xml version="1.0" encoding="utf-8"?>
<Root>
  <ActivationFunctions>
    <Fn id="0" name="SteepenedSigmoid" prob="1" />
  </ActivationFunctions>
  <Networks>
    <Network id="538505" birthGen="13418" fitness="99.16094970703125">
      <Nodes>
        <Node type="bias" id="0" />
        <Node type="in" id="1" />
        <Node type="in" id="2" />
        <Node type="in" id="3" />
        <Node type="in" id="4" />
        <Node type="in" id="5" />
        <Node type="out" id="6" />
        <Node type="out" id="7" />
        <Node type="out" id="8" />
        <Node type="out" id="9" />
        <Node type="out" id="10" />
        <Node type="hid" id="73" />
        <Node type="hid" id="88" />
        <Node type="hid" id="110" />
        <Node type="hid" id="189" />
        <Node type="hid" id="200" />
        <Node type="hid" id="208" />
        <Node type="hid" id="214" />
        <Node type="hid" id="251" />
        <Node type="hid" id="304" />
        <Node type="hid" id="390" />
        <Node type="hid" id="408" />
        <Node type="hid" id="417" />
        <Node type="hid" id="422" />
        <Node type="hid" id="442" />
        <Node type="hid" id="454" />
        <Node type="hid" id="512" />
        <Node type="hid" id="606" />
        <Node type="hid" id="721" />
        <Node type="hid" id="757" />
        <Node type="hid" id="930" />
        <Node type="hid" id="956" />
        <Node type="hid" id="1002" />
        <Node type="hid" id="1041" />
        <Node type="hid" id="1049" />
        <Node type="hid" id="1076" />
        <Node type="hid" id="1129" />
        <Node type="hid" id="1389" />
        <Node type="hid" id="1395" />
        <Node type="hid" id="1428" />
        <Node type="hid" id="1571" />
        <Node type="hid" id="1588" />
        <Node type="hid" id="1604" />
        <Node type="hid" id="1613" />
        <Node type="hid" id="1823" />
        <Node type="hid" id="1895" />
        <Node type="hid" id="2045" />
        <Node type="hid" id="2128" />
        <Node type="hid" id="2181" />
        <Node type="hid" id="2217" />
        <Node type="hid" id="2221" />
        <Node type="hid" id="2425" />
        <Node type="hid" id="2593" />
        <Node type="hid" id="2719" />
        <Node type="hid" id="2725" />
        <Node type="hid" id="2730" />
        <Node type="hid" id="2871" />
        <Node type="hid" id="3001" />
        <Node type="hid" id="3010" />
        <Node type="hid" id="3040" />
        <Node type="hid" id="3111" />
        <Node type="hid" id="3122" />
        <Node type="hid" id="3161" />
        <Node type="hid" id="3205" />
        <Node type="hid" id="3216" />
        <Node type="hid" id="3230" />
        <Node type="hid" id="3240" />
        <Node type="hid" id="3311" />
        <Node type="hid" id="3344" />
        <Node type="hid" id="3388" />
        <Node type="hid" id="3397" />
        <Node type="hid" id="3439" />
        <Node type="hid" id="3448" />
        <Node type="hid" id="3590" />
        <Node type="hid" id="3602" />
        <Node type="hid" id="3667" />
        <Node type="hid" id="3732" />
        <Node type="hid" id="3828" />
        <Node type="hid" id="3884" />
        <Node type="hid" id="3906" />
        <Node type="hid" id="3994" />
        <Node type="hid" id="4029" />
        <Node type="hid" id="4113" />
        <Node type="hid" id="4305" />
        <Node type="hid" id="4322" />
        <Node type="hid" id="4361" />
        <Node type="hid" id="4372" />
        <Node type="hid" id="4376" />
        <Node type="hid" id="4385" />
        <Node type="hid" id="4558" />
        <Node type="hid" id="4638" />
        <Node type="hid" id="4662" />
        <Node type="hid" id="4743" />
        <Node type="hid" id="5032" />
        <Node type="hid" id="5329" />
        <Node type="hid" id="5347" />
        <Node type="hid" id="5370" />
        <Node type="hid" id="5571" />
        <Node type="hid" id="5655" />
        <Node type="hid" id="6315" />
        <Node type="hid" id="6383" />
        <Node type="hid" id="6429" />
        <Node type="hid" id="6473" />
        <Node type="hid" id="6581" />
        <Node type="hid" id="6623" />
        <Node type="hid" id="6663" />
        <Node type="hid" id="6751" />
        <Node type="hid" id="6915" />
        <Node type="hid" id="6922" />
        <Node type="hid" id="7085" />
        <Node type="hid" id="7313" />
        <Node type="hid" id="7360" />
        <Node type="hid" id="7374" />
        <Node type="hid" id="7402" />
        <Node type="hid" id="7451" />
        <Node type="hid" id="7485" />
        <Node type="hid" id="7714" />
        <Node type="hid" id="7745" />
        <Node type="hid" id="7867" />
        <Node type="hid" id="7951" />
        <Node type="hid" id="7967" />
        <Node type="hid" id="8095" />
        <Node type="hid" id="8284" />
        <Node type="hid" id="8644" />
        <Node type="hid" id="8878" />
        <Node type="hid" id="8932" />
        <Node type="hid" id="9063" />
        <Node type="hid" id="9079" />
        <Node type="hid" id="9428" />
        <Node type="hid" id="9532" />
        <Node type="hid" id="9609" />
        <Node type="hid" id="9621" />
        <Node type="hid" id="9633" />
        <Node type="hid" id="9653" />
        <Node type="hid" id="9987" />
        <Node type="hid" id="10090" />
        <Node type="hid" id="10695" />
        <Node type="hid" id="10698" />
        <Node type="hid" id="10705" />
        <Node type="hid" id="10846" />
        <Node type="hid" id="10880" />
        <Node type="hid" id="10967" />
        <Node type="hid" id="11233" />
        <Node type="hid" id="11279" />
        <Node type="hid" id="11488" />
        <Node type="hid" id="11749" />
        <Node type="hid" id="11787" />
        <Node type="hid" id="11971" />
        <Node type="hid" id="11993" />
        <Node type="hid" id="12291" />
        <Node type="hid" id="12743" />
        <Node type="hid" id="12765" />
        <Node type="hid" id="12792" />
        <Node type="hid" id="12972" />
        <Node type="hid" id="13015" />
        <Node type="hid" id="13018" />
        <Node type="hid" id="13125" />
        <Node type="hid" id="13285" />
        <Node type="hid" id="13343" />
        <Node type="hid" id="13639" />
        <Node type="hid" id="13664" />
        <Node type="hid" id="13733" />
        <Node type="hid" id="13920" />
        <Node type="hid" id="13937" />
        <Node type="hid" id="14497" />
        <Node type="hid" id="14895" />
        <Node type="hid" id="15071" />
        <Node type="hid" id="15222" />
        <Node type="hid" id="15733" />
        <Node type="hid" id="15782" />
        <Node type="hid" id="15816" />
      </Nodes>
      <Connections>
        <Con id="49" src="1" tgt="7" wght="0.5526173414167328" />
        <Con id="60" src="5" tgt="7" wght="-3.2124003976923876" />
        <Con id="63" src="0" tgt="7" wght="-2.8853629139421986" />
        <Con id="65" src="5" tgt="6" wght="4.9868343870969136" />
        <Con id="69" src="3" tgt="8" wght="-4.1123533190078776" />
        <Con id="70" src="4" tgt="9" wght="-2.3030069470405579" />
        <Con id="71" src="0" tgt="6" wght="1.4642425782853792" />
        <Con id="74" src="2" tgt="73" wght="-0.074527865134790872" />
        <Con id="76" src="2" tgt="6" wght="-4.5615606470014916" />
        <Con id="78" src="2" tgt="10" wght="-2.0977004171812497" />
        <Con id="79" src="4" tgt="6" wght="-0.096769523440394481" />
        <Con id="85" src="1" tgt="6" wght="3.0017351709244555" />
        <Con id="86" src="3" tgt="9" wght="-2.1936760033181746" />
        <Con id="87" src="3" tgt="6" wght="-2.5631251865741009" />
        <Con id="90" src="88" tgt="9" wght="3.5233440317620572" />
        <Con id="100" src="73" tgt="6" wght="0.98617887481257882" />
        <Con id="103" src="88" tgt="73" wght="-1.408885272914707" />
        <Con id="111" src="0" tgt="110" wght="1.1854769295403187" />
        <Con id="135" src="110" tgt="6" wght="-0.166271610744095" />
        <Con id="137" src="110" tgt="9" wght="-0.4378101363922704" />
        <Con id="184" src="110" tgt="10" wght="5" />
        <Con id="191" src="189" tgt="88" wght="3.5042786403029611" />
        <Con id="192" src="110" tgt="88" wght="3.2486350796522339" />
        <Con id="197" src="5" tgt="110" wght="1.9707822097850749" />
        <Con id="202" src="200" tgt="6" wght="1.2127975263205781" />
        <Con id="204" src="189" tgt="9" wght="5" />
        <Con id="252" src="189" tgt="251" wght="0.0856981831770735" />
        <Con id="263" src="110" tgt="200" wght="-2.0551269511394348" />
        <Con id="265" src="251" tgt="7" wght="-0.36416905787038595" />
        <Con id="269" src="214" tgt="6" wght="4.2363387682533808" />
        <Con id="272" src="5" tgt="208" wght="-4.6206671862232778" />
        <Con id="280" src="251" tgt="10" wght="-4.9544283295642337" />
        <Con id="281" src="0" tgt="208" wght="3.5826098448198591" />
        <Con id="305" src="73" tgt="304" wght="5" />
        <Con id="306" src="304" tgt="200" wght="-3.6239375987831828" />
        <Con id="316" src="0" tgt="214" wght="-2.4538718137171429" />
        <Con id="319" src="73" tgt="200" wght="-5" />
        <Con id="320" src="189" tgt="7" wght="-1.1501722490421762" />
        <Con id="326" src="4" tgt="208" wght="1.9693591470745193" />
        <Con id="352" src="214" tgt="73" wght="-4.5751841319724917" />
        <Con id="364" src="304" tgt="8" wght="-0.022278025477896778" />
        <Con id="366" src="208" tgt="9" wght="-0.51492258285171544" />
        <Con id="373" src="4" tgt="189" wght="2.2943797789964289" />
        <Con id="379" src="3" tgt="200" wght="3.9768048236146569" />
        <Con id="391" src="2" tgt="390" wght="4.498849799537183" />
        <Con id="401" src="390" tgt="251" wght="-1.6302939851689029" />
        <Con id="406" src="5" tgt="251" wght="-5" />
        <Con id="409" src="208" tgt="408" wght="4.1625489097968069" />
        <Con id="410" src="408" tgt="110" wght="0.41473060836598552" />
        <Con id="418" src="0" tgt="417" wght="1.7448652981326669" />
        <Con id="423" src="1" tgt="422" wght="-4.5108992590951278" />
        <Con id="426" src="4" tgt="304" wght="-4.4273122724480736" />
        <Con id="436" src="208" tgt="304" wght="4.0013637351496145" />
        <Con id="443" src="390" tgt="442" wght="-3.0446746550143535" />
        <Con id="444" src="442" tgt="189" wght="0.13604895132504882" />
        <Con id="453" src="408" tgt="9" wght="-3.9420238998045622" />
        <Con id="456" src="454" tgt="208" wght="-1.6089919059492681" />
        <Con id="464" src="3" tgt="408" wght="5" />
        <Con id="479" src="408" tgt="8" wght="-2.3697657332104645" />
        <Con id="490" src="454" tgt="390" wght="3.4387573450318034" />
        <Con id="491" src="454" tgt="417" wght="4.9840288757305133" />
        <Con id="494" src="208" tgt="417" wght="5" />
        <Con id="495" src="442" tgt="7" wght="-1.9173853021562468" />
        <Con id="511" src="4" tgt="390" wght="-3.3001762297323873" />
        <Con id="513" src="5" tgt="512" wght="3.308034051978" />
        <Con id="514" src="512" tgt="214" wght="1.4268336168606024" />
        <Con id="524" src="408" tgt="189" wght="-3.0564100377799535" />
        <Con id="528" src="408" tgt="7" wght="4.7629636065244414" />
        <Con id="529" src="1" tgt="408" wght="0.35331688508514736" />
        <Con id="536" src="3" tgt="442" wght="-4.5730571112146485" />
        <Con id="537" src="422" tgt="408" wght="4.8103969098343393" />
        <Con id="546" src="422" tgt="512" wght="4.3581207652808551" />
        <Con id="578" src="422" tgt="9" wght="-0.91351622304789282" />
        <Con id="579" src="214" tgt="454" wght="-0.5410587621447942" />
        <Con id="581" src="390" tgt="189" wght="-4.41154065370352" />
        <Con id="585" src="5" tgt="214" wght="-0.011264652268357302" />
        <Con id="587" src="1" tgt="512" wght="3.9789760797032008" />
        <Con id="594" src="4" tgt="454" wght="4.1897904600292382" />
        <Con id="600" src="408" tgt="442" wght="-4.49491867522289" />
        <Con id="610" src="454" tgt="304" wght="0.63888714213472775" />
        <Con id="613" src="88" tgt="417" wght="1.1778133383261711" />
        <Con id="618" src="606" tgt="189" wght="-1.7859170147169154" />
        <Con id="620" src="512" tgt="110" wght="0.93529679949465849" />
        <Con id="625" src="3" tgt="214" wght="2.2894106089593333" />
        <Con id="654" src="408" tgt="606" wght="4.3759352000197058" />
        <Con id="670" src="3" tgt="454" wght="-5" />
        <Con id="682" src="110" tgt="417" wght="-5" />
        <Con id="688" src="0" tgt="442" wght="-4.2992791979039753" />
        <Con id="689" src="4" tgt="512" wght="-2.1780074352515988" />
        <Con id="690" src="512" tgt="9" wght="-1.695322502857872" />
        <Con id="719" src="1" tgt="442" wght="-2.3268728666296861" />
        <Con id="744" src="1" tgt="606" wght="0.77582071287326526" />
        <Con id="751" src="1" tgt="417" wght="5" />
        <Con id="758" src="110" tgt="757" wght="3.871659869077086" />
        <Con id="759" src="757" tgt="721" wght="-1.1437792031989655" />
        <Con id="767" src="417" tgt="304" wght="-4.8455804300328404" />
        <Con id="773" src="422" tgt="757" wght="-3.9605344140817778" />
        <Con id="779" src="721" tgt="189" wght="-4.2068511323877589" />
        <Con id="789" src="442" tgt="10" wght="-2.5997705135786324" />
        <Con id="790" src="757" tgt="304" wght="4.5319109181125805" />
        <Con id="792" src="721" tgt="73" wght="-3.5341443836666238" />
        <Con id="796" src="721" tgt="251" wght="0.72004656802237421" />
        <Con id="798" src="0" tgt="390" wght="-0.11335578629274434" />
        <Con id="802" src="606" tgt="721" wght="0.87295563985079683" />
        <Con id="828" src="5" tgt="390" wght="2.832347053978026" />
        <Con id="832" src="422" tgt="8" wght="2.8336616822628136" />
        <Con id="844" src="1" tgt="304" wght="-5" />
        <Con id="877" src="721" tgt="6" wght="5" />
        <Con id="900" src="0" tgt="606" wght="0.16717558005504776" />
        <Con id="903" src="606" tgt="442" wght="5" />
        <Con id="920" src="721" tgt="200" wght="3.9157817978895273" />
        <Con id="921" src="208" tgt="721" wght="0.9183969233342324" />
        <Con id="925" src="606" tgt="6" wght="3.8342599416113341" />
        <Con id="926" src="390" tgt="757" wght="-4.8136349865946473" />
        <Con id="927" src="4" tgt="422" wght="5" />
        <Con id="931" src="110" tgt="930" wght="-2.0800750919219517" />
        <Con id="941" src="930" tgt="7" wght="-3.1459609846607361" />
        <Con id="957" src="200" tgt="956" wght="4.7451656883316264" />
        <Con id="977" src="721" tgt="442" wght="2.5979968982837445" />
        <Con id="995" src="930" tgt="88" wght="-1.5823482622978848" />
        <Con id="998" src="4" tgt="930" wght="-0.74652578593641106" />
        <Con id="1015" src="422" tgt="721" wght="-3.51280877353069" />
        <Con id="1025" src="422" tgt="1002" wght="0.44487773815672016" />
        <Con id="1028" src="1002" tgt="10" wght="-0.67125085434654652" />
        <Con id="1031" src="3" tgt="417" wght="-3.9711433434827472" />
        <Con id="1045" src="1" tgt="930" wght="4.9975558281542316" />
        <Con id="1050" src="422" tgt="1049" wght="-1.9891968760280905" />
        <Con id="1051" src="1049" tgt="6" wght="2.8086998048150904" />
        <Con id="1053" src="390" tgt="1041" wght="4.044938729385132" />
        <Con id="1056" src="512" tgt="7" wght="-0.472216184241377" />
        <Con id="1077" src="88" tgt="1076" wght="-0.93705411328509192" />
        <Con id="1078" src="1076" tgt="7" wght="2.5729676790175082" />
        <Con id="1097" src="390" tgt="1076" wght="-1.18101482824453" />
        <Con id="1131" src="1129" tgt="408" wght="-3.3928421113202387" />
        <Con id="1132" src="1041" tgt="6" wght="-2.8023747324893784" />
        <Con id="1146" src="5" tgt="1076" wght="1.4089535772495287" />
        <Con id="1178" src="1049" tgt="7" wght="0.30605223131448811" />
        <Con id="1179" src="2" tgt="956" wght="-1.2759363799530588" />
        <Con id="1246" src="454" tgt="1002" wght="4.0624101622700444" />
        <Con id="1252" src="1002" tgt="110" wght="2.7186670718432491" />
        <Con id="1259" src="390" tgt="1049" wght="2.2286212771060514" />
        <Con id="1261" src="757" tgt="442" wght="1.6662907964708635" />
        <Con id="1306" src="1002" tgt="417" wght="2.9110341080008637" />
        <Con id="1308" src="930" tgt="606" wght="0.089460997842252254" />
        <Con id="1343" src="4" tgt="956" wght="3.9997270004823804" />
        <Con id="1379" src="1049" tgt="73" wght="5" />
        <Con id="1381" src="1" tgt="1049" wght="2.8622974075938274" />
        <Con id="1391" src="1389" tgt="73" wght="2.845276058220485" />
        <Con id="1397" src="1395" tgt="208" wght="3.8960497792292679" />
        <Con id="1402" src="417" tgt="956" wght="-0.56206285836086467" />
        <Con id="1403" src="1076" tgt="1041" wght="-0.47010333928554437" />
        <Con id="1413" src="930" tgt="1049" wght="-2.2772227177674114" />
        <Con id="1430" src="1428" tgt="189" wght="-4.2682632114489243" />
        <Con id="1438" src="4" tgt="721" wght="-2.26217169883999" />
        <Con id="1441" src="88" tgt="956" wght="0.036194779255793952" />
        <Con id="1445" src="1428" tgt="251" wght="-1.2933791063010192" />
        <Con id="1447" src="721" tgt="1076" wght="-2.1547505844955079" />
        <Con id="1458" src="214" tgt="1129" wght="-0.65189953801436507" />
        <Con id="1507" src="1428" tgt="757" wght="-3.1092174312620875" />
        <Con id="1512" src="3" tgt="1389" wght="4.5463144947407335" />
        <Con id="1526" src="422" tgt="930" wght="1.0792331647548274" />
        <Con id="1531" src="3" tgt="1049" wght="1.7235778959083665" />
        <Con id="1534" src="1428" tgt="1049" wght="4.51729109202122" />
        <Con id="1539" src="606" tgt="1389" wght="1.0385792515507395" />
        <Con id="1552" src="1129" tgt="956" wght="2.0892152093661149" />
        <Con id="1572" src="0" tgt="1571" wght="-5" />
        <Con id="1573" src="1571" tgt="214" wght="-3.2529333052952341" />
        <Con id="1576" src="1395" tgt="200" wght="-4.7101763793301235" />
        <Con id="1578" src="5" tgt="1002" wght="1.461419351178511" />
        <Con id="1589" src="2" tgt="1588" wght="0.71910177660918639" />
        <Con id="1595" src="1395" tgt="930" wght="1.3061862279431447" />
        <Con id="1603" src="1395" tgt="9" wght="1.073156164952662" />
        <Con id="1606" src="1604" tgt="1041" wght="0.6161796570216832" />
        <Con id="1614" src="110" tgt="1613" wght="-1.6507840607897577" />
        <Con id="1615" src="1613" tgt="606" wght="-2.4229722926143777" />
        <Con id="1683" src="1588" tgt="214" wght="-3.1177665605371971" />
        <Con id="1708" src="2" tgt="1395" wght="2.0035376253008734" />
        <Con id="1735" src="5" tgt="1604" wght="3.8278640373231636" />
        <Con id="1776" src="110" tgt="1604" wght="-4.2548310301042687" />
        <Con id="1785" src="1395" tgt="8" wght="3.763820790450926" />
        <Con id="1798" src="1395" tgt="73" wght="-4.9674456437638828" />
        <Con id="1822" src="512" tgt="1604" wght="-5" />
        <Con id="1826" src="408" tgt="1076" wght="-4.4529247141521129" />
        <Con id="1894" src="1613" tgt="9" wght="2.4142388178254794" />
        <Con id="1921" src="1395" tgt="110" wght="-0.91315827872840316" />
        <Con id="1923" src="1588" tgt="110" wght="2.6987303896337465" />
        <Con id="1939" src="1571" tgt="422" wght="-0.79291148186598859" />
        <Con id="1947" src="1823" tgt="1604" wght="-0.455509804535974" />
        <Con id="1964" src="5" tgt="1389" wght="-4.3299474214793259" />
        <Con id="1985" src="1428" tgt="8" wght="-1.8661850803002022" />
        <Con id="1987" src="1002" tgt="7" wght="-4.993118620320848" />
        <Con id="2027" src="1613" tgt="7" wght="0.92526543615766776" />
        <Con id="2046" src="2" tgt="2045" wght="3.118267486967742" />
        <Con id="2047" src="2045" tgt="1041" wght="3.0516288412961678" />
        <Con id="2050" src="1588" tgt="1395" wght="0.84139393429435227" />
        <Con id="2051" src="1588" tgt="73" wght="3.9759870905898347" />
        <Con id="2056" src="930" tgt="1428" wght="-3.457625024061024" />
        <Con id="2061" src="1588" tgt="2045" wght="-1.8390859759794669" />
        <Con id="2068" src="1895" tgt="9" wght="-2.5910118608714665" />
        <Con id="2091" src="4" tgt="1076" wght="-0.46723597159429975" />
        <Con id="2102" src="512" tgt="1076" wght="-5" />
        <Con id="2127" src="208" tgt="1823" wght="2.1820318669154322" />
        <Con id="2130" src="2128" tgt="721" wght="3.8266190292497875" />
        <Con id="2146" src="1613" tgt="721" wght="-1.7659071182413628" />
        <Con id="2172" src="1395" tgt="1129" wght="0.52381301929188839" />
        <Con id="2178" src="1129" tgt="200" wght="-2.7065964294099443" />
        <Con id="2182" src="1002" tgt="2181" wght="-3.1533571831290796" />
        <Con id="2212" src="2128" tgt="6" wght="4.7853054013103247" />
        <Con id="2220" src="1588" tgt="1129" wght="-3.297547595141741" />
        <Con id="2222" src="721" tgt="2221" wght="-2.9255675710737705" />
        <Con id="2223" src="2221" tgt="1823" wght="1.4395081992499887" />
        <Con id="2231" src="1571" tgt="721" wght="3.6249663591912511" />
        <Con id="2235" src="1571" tgt="2217" wght="-0.94663300642997472" />
        <Con id="2259" src="1389" tgt="2221" wght="-3.3167829229354671" />
        <Con id="2280" src="2128" tgt="1389" wght="-1.5237696437377188" />
        <Con id="2315" src="2045" tgt="1002" wght="0.45092797237610771" />
        <Con id="2347" src="1895" tgt="721" wght="-3.0854876011952577" />
        <Con id="2403" src="2217" tgt="721" wght="-3.7070551278107349" />
        <Con id="2427" src="2425" tgt="9" wght="-4.5996259191042554" />
        <Con id="2458" src="4" tgt="2128" wght="5" />
        <Con id="2469" src="2" tgt="2181" wght="5" />
        <Con id="2500" src="930" tgt="2181" wght="-0.42996424900333285" />
        <Con id="2503" src="1895" tgt="2221" wght="-1.7207297612688051" />
        <Con id="2548" src="304" tgt="2425" wght="-4.776719254281879" />
        <Con id="2563" src="2425" tgt="1041" wght="-0.47140060554774449" />
        <Con id="2594" src="1129" tgt="2593" wght="-5" />
        <Con id="2595" src="2593" tgt="6" wght="2.4380255262157497" />
        <Con id="2600" src="2128" tgt="189" wght="-5" />
        <Con id="2603" src="390" tgt="2425" wght="0.14094804559570639" />
        <Con id="2701" src="2593" tgt="73" wght="0.668088020944088" />
        <Con id="2707" src="214" tgt="2045" wght="4.6353249482547305" />
        <Con id="2720" src="200" tgt="2719" wght="-0.87401965190077613" />
        <Con id="2727" src="2725" tgt="200" wght="3.1187795592890684" />
        <Con id="2732" src="2730" tgt="7" wght="-0.43188553456803136" />
        <Con id="2815" src="2181" tgt="1041" wght="-0.99167846617479638" />
        <Con id="2840" src="390" tgt="2593" wght="-3.9390079987861641" />
        <Con id="2872" src="1823" tgt="2871" wght="-2.2727206349372864" />
        <Con id="2873" src="2871" tgt="2425" wght="-0.38340654815421005" />
        <Con id="2884" src="2725" tgt="2593" wght="4.2654691815718557" />
        <Con id="2885" src="1604" tgt="2593" wght="2.5150186589037653" />
        <Con id="2938" src="1076" tgt="10" wght="4.4272465813456714" />
        <Con id="3002" src="5" tgt="3001" wght="3.5390645934642335" />
        <Con id="3003" src="3001" tgt="606" wght="3.6088362382361936" />
        <Con id="3011" src="930" tgt="3010" wght="-0.55722213430965462" />
        <Con id="3012" src="3010" tgt="189" wght="-3.6983326723289607" />
        <Con id="3014" src="1613" tgt="1049" wght="2.481053549128073" />
        <Con id="3041" src="721" tgt="3040" wght="-3.7522602635411526" />
        <Con id="3042" src="3040" tgt="8" wght="-4.32621503119662" />
        <Con id="3053" src="2593" tgt="2425" wght="-3.7785659469313186" />
        <Con id="3074" src="2871" tgt="1041" wght="4.8671378539778045" />
        <Con id="3093" src="88" tgt="2593" wght="-1.2579737129739" />
        <Con id="3099" src="2045" tgt="930" wght="-2.7435271111214106" />
        <Con id="3102" src="454" tgt="2217" wght="3.8090652255071342" />
        <Con id="3110" src="1129" tgt="2730" wght="3.5241560064761455" />
        <Con id="3112" src="1588" tgt="3111" wght="2.1500806199576807" />
        <Con id="3113" src="3111" tgt="454" wght="-3.3838319400770267" />
        <Con id="3123" src="1002" tgt="3122" wght="2.9201082465848716" />
        <Con id="3124" src="3122" tgt="200" wght="1.7186665370740242" />
        <Con id="3143" src="189" tgt="2871" wght="-2.9827682487666607" />
        <Con id="3147" src="3001" tgt="512" wght="0.69050325761445575" />
        <Con id="3162" src="442" tgt="3161" wght="-2.7569731280121776" />
        <Con id="3196" src="3001" tgt="1076" wght="-4.8502771381052767" />
        <Con id="3206" src="110" tgt="3205" wght="-3.1906711524394837" />
        <Con id="3207" src="3205" tgt="7" wght="3.5706028798192415" />
        <Con id="3218" src="3216" tgt="408" wght="-1.5321231912821531" />
        <Con id="3232" src="3230" tgt="251" wght="1.2981510788981165" />
        <Con id="3241" src="214" tgt="3240" wght="1.1446870582376547" />
        <Con id="3312" src="1588" tgt="3311" wght="-5" />
        <Con id="3313" src="3311" tgt="1076" wght="2.9317974144665215" />
        <Con id="3333" src="2725" tgt="3240" wght="-3.0433059842380734" />
        <Con id="3340" src="2730" tgt="2593" wght="-0.8020374430652063" />
        <Con id="3341" src="3216" tgt="2425" wght="3.5891468922044809" />
        <Con id="3343" src="1" tgt="3240" wght="2.3068646772104078" />
        <Con id="3345" src="1" tgt="3344" wght="-1.2410620832815766" />
        <Con id="3346" src="3344" tgt="200" wght="-5" />
        <Con id="3371" src="1395" tgt="2128" wght="-2.2741930414350371" />
        <Con id="3381" src="2593" tgt="3161" wght="-0.49854050698511743" />
        <Con id="3383" src="3010" tgt="3040" wght="-2.79607480986415" />
        <Con id="3389" src="2725" tgt="3388" wght="-0.085380260691441875" />
        <Con id="3390" src="3388" tgt="3122" wght="-0.099132107343897713" />
        <Con id="3396" src="3111" tgt="3161" wght="0.3481396181782781" />
        <Con id="3398" src="73" tgt="3397" wght="-3.087704463899549" />
        <Con id="3399" src="3397" tgt="9" wght="1.7747484280027155" />
        <Con id="3419" src="956" tgt="3311" wght="-3.5579211452043213" />
        <Con id="3432" src="1613" tgt="2730" wght="4.1027012689890077" />
        <Con id="3438" src="1588" tgt="2730" wght="-5" />
        <Con id="3440" src="1395" tgt="3439" wght="1.7936280452893059" />
        <Con id="3441" src="3439" tgt="956" wght="0.021266332459757606" />
        <Con id="3449" src="2128" tgt="3448" wght="3.8182778449667225" />
        <Con id="3450" src="3448" tgt="1129" wght="1.2603901523679963" />
        <Con id="3464" src="3230" tgt="3122" wght="-2.7389939171679374" />
        <Con id="3482" src="2730" tgt="2725" wght="4.4296675501391292" />
        <Con id="3503" src="3311" tgt="1041" wght="2.5255175571279764" />
        <Con id="3539" src="200" tgt="3161" wght="1.4832904214330036" />
        <Con id="3544" src="3448" tgt="2871" wght="3.8962867540768906" />
        <Con id="3556" src="3161" tgt="7" wght="3.4610802309070361" />
        <Con id="3570" src="512" tgt="3122" wght="1.8202562539335749" />
        <Con id="3592" src="3590" tgt="200" wght="-0.97508728999667871" />
        <Con id="3603" src="251" tgt="3602" wght="-1.9240615050515439" />
        <Con id="3604" src="3602" tgt="88" wght="-0.28873027376561167" />
        <Con id="3606" src="930" tgt="3161" wght="4.6598637383853561" />
        <Con id="3632" src="3122" tgt="3344" wght="-0.81807169870544838" />
        <Con id="3642" src="956" tgt="3040" wght="-5" />
        <Con id="3656" src="3439" tgt="189" wght="-4.3016429646614354" />
        <Con id="3660" src="3344" tgt="6" wght="3.1375391818262326" />
        <Con id="3668" src="408" tgt="3667" wght="3.0867414713451189" />
        <Con id="3669" src="3667" tgt="956" wght="0.67516016655629374" />
        <Con id="3677" src="2217" tgt="110" wght="1.378917459763457" />
        <Con id="3680" src="1895" tgt="3230" wght="0.52979022501824891" />
        <Con id="3709" src="3388" tgt="6" wght="4.6603402873438409" />
        <Con id="3720" src="200" tgt="2425" wght="2.9174387027605477" />
        <Con id="3772" src="1895" tgt="3344" wght="-2.6724084905559078" />
        <Con id="3791" src="3388" tgt="1041" wght="0.00925212524945692" />
        <Con id="3829" src="1389" tgt="3828" wght="-5" />
        <Con id="3830" src="3828" tgt="304" wght="3.1791537046556804" />
        <Con id="3837" src="1049" tgt="2725" wght="4.991816120388453" />
        <Con id="3846" src="721" tgt="3397" wght="4.0900949594672458" />
        <Con id="3885" src="1895" tgt="3884" wght="-3.7238411690691762" />
        <Con id="3886" src="3884" tgt="1428" wght="3.8326135236779737" />
        <Con id="3908" src="3906" tgt="9" wght="2.3415786349880894" />
        <Con id="3955" src="2" tgt="3311" wght="4.3567226637182159" />
        <Con id="3979" src="1571" tgt="3602" wght="-5" />
        <Con id="3995" src="2221" tgt="3994" wght="-0.359447970072311" />
        <Con id="4007" src="2730" tgt="3010" wght="3.0444909674328304" />
        <Con id="4027" src="930" tgt="2221" wght="0.5683143755645802" />
        <Con id="4030" src="2719" tgt="4029" wght="-0.90451942415231457" />
        <Con id="4031" src="4029" tgt="10" wght="2.3286406085076896" />
        <Con id="4067" src="3667" tgt="417" wght="-0.10345821364790164" />
        <Con id="4074" src="606" tgt="3602" wght="-4.9927352634528415" />
        <Con id="4091" src="1049" tgt="3994" wght="-3.8367582048627757" />
        <Con id="4092" src="304" tgt="3590" wght="-5" />
        <Con id="4096" src="1" tgt="3388" wght="-4.517074035579423" />
        <Con id="4097" src="3161" tgt="3397" wght="-5" />
        <Con id="4114" src="3161" tgt="4113" wght="1.7181564506496882" />
        <Con id="4115" src="4113" tgt="3906" wght="3.4597492985864244" />
        <Con id="4144" src="417" tgt="3906" wght="-3.885303627628657" />
        <Con id="4161" src="1002" tgt="3884" wght="2.3577575808159126" />
        <Con id="4163" src="1604" tgt="3388" wght="2.6047140359850611" />
        <Con id="4172" src="930" tgt="3828" wght="-3.7038887340411852" />
        <Con id="4173" src="3205" tgt="3040" wght="-3.4797335400226852" />
        <Con id="4181" src="3439" tgt="2128" wght="1.3841307746210358" />
        <Con id="4219" src="1" tgt="3828" wght="3.2226944274183689" />
        <Con id="4220" src="2128" tgt="1041" wght="-2.9345640968008424" />
        <Con id="4230" src="3602" tgt="3906" wght="4.0510819177187933" />
        <Con id="4300" src="3040" tgt="1041" wght="-0.94659766679528223" />
        <Con id="4306" src="2221" tgt="4305" wght="-0.84787476065242828" />
        <Con id="4307" src="4305" tgt="2730" wght="0.68756243140000328" />
        <Con id="4323" src="408" tgt="4322" wght="4.2711124430065572" />
        <Con id="4351" src="3010" tgt="2871" wght="-5" />
        <Con id="4363" src="4361" tgt="454" wght="-1.4152742524158695" />
        <Con id="4373" src="0" tgt="4372" wght="-2.1448541778968915" />
        <Con id="4374" src="4372" tgt="930" wght="-5" />
        <Con id="4377" src="1049" tgt="4376" wght="-1.104995801177155" />
        <Con id="4378" src="4376" tgt="88" wght="4.650259941285487" />
        <Con id="4379" src="3602" tgt="4029" wght="5" />
        <Con id="4386" src="1002" tgt="4385" wght="5" />
        <Con id="4387" src="4385" tgt="390" wght="-0.002017094737470429" />
        <Con id="4396" src="721" tgt="3161" wght="-3.2040483733352216" />
        <Con id="4410" src="3205" tgt="4029" wght="-5" />
        <Con id="4468" src="3205" tgt="930" wght="0.68624636222656754" />
        <Con id="4512" src="3884" tgt="4113" wght="-1.4665852268172144" />
        <Con id="4515" src="1604" tgt="2719" wght="3.8135550020671873" />
        <Con id="4523" src="2730" tgt="6" wght="-4.013632070649221" />
        <Con id="4527" src="4305" tgt="88" wght="3.091722332977084" />
        <Con id="4554" src="3828" tgt="3344" wght="0.17851069979916592" />
        <Con id="4559" src="956" tgt="4558" wght="2.2294429295401419" />
        <Con id="4565" src="606" tgt="3388" wght="2.8994500736711872" />
        <Con id="4607" src="3994" tgt="2719" wght="1.1060696292542938" />
        <Con id="4609" src="721" tgt="3240" wght="0.0749577231886871" />
        <Con id="4639" src="390" tgt="4638" wght="3.70477685998786" />
        <Con id="4640" src="4638" tgt="8" wght="-0.9004148366875705" />
        <Con id="4663" src="251" tgt="4662" wght="-3.4411242883808661" />
        <Con id="4664" src="4662" tgt="8" wght="3.6024570549251504" />
        <Con id="4675" src="3205" tgt="2425" wght="0.88382292814032326" />
        <Con id="4683" src="3732" tgt="721" wght="-0.1073248528045965" />
        <Con id="4697" src="1613" tgt="2871" wght="-0.52973376103524972" />
        <Con id="4736" src="3240" tgt="4113" wght="0.9117717202841078" />
        <Con id="4744" src="422" tgt="4743" wght="5" />
        <Con id="4771" src="417" tgt="3161" wght="-2.0001018918729327" />
        <Con id="4866" src="3001" tgt="1389" wght="4.7462196097821518" />
        <Con id="4895" src="2730" tgt="2425" wght="4.1462765234207728" />
        <Con id="4919" src="88" tgt="3667" wght="1.5914676085464972" />
        <Con id="4922" src="757" tgt="3388" wght="2.5451333370783438" />
        <Con id="4923" src="3602" tgt="3161" wght="5" />
        <Con id="4938" src="88" tgt="3994" wght="3.442522134609133" />
        <Con id="4951" src="512" tgt="1823" wght="-3.5306823625651593" />
        <Con id="4975" src="3906" tgt="4029" wght="-4.9318080579161077" />
        <Con id="4976" src="930" tgt="2871" wght="1.8296812923846808" />
        <Con id="4978" src="3884" tgt="3311" wght="-1.8653784383090497" />
        <Con id="4979" src="1895" tgt="3602" wght="2.6927337696149349" />
        <Con id="5023" src="3111" tgt="1613" wght="-4.8001503327032324" />
        <Con id="5034" src="5032" tgt="442" wght="-5" />
        <Con id="5051" src="3397" tgt="3240" wght="4.9029680695876712" />
        <Con id="5053" src="2" tgt="3439" wght="0.87579317404591761" />
        <Con id="5071" src="4376" tgt="10" wght="-5" />
        <Con id="5092" src="3161" tgt="4558" wght="1.4359197528408332" />
        <Con id="5121" src="2425" tgt="4029" wght="1.4740526614859515" />
        <Con id="5128" src="4322" tgt="2181" wght="0.017568163914652078" />
        <Con id="5132" src="3216" tgt="442" wght="-3.8536586289996246" />
        <Con id="5135" src="3732" tgt="4372" wght="-2.2373238572732683" />
        <Con id="5169" src="3448" tgt="208" wght="-0.93581787988081744" />
        <Con id="5178" src="3040" tgt="4113" wght="-2.5356012091609306" />
        <Con id="5209" src="3388" tgt="2425" wght="-0.65657800064339311" />
        <Con id="5211" src="4743" tgt="1823" wght="3.6940502804240607" />
        <Con id="5215" src="3448" tgt="4361" wght="2.7835231724648066" />
        <Con id="5216" src="5" tgt="4743" wght="0.2930136504447165" />
        <Con id="5219" src="3828" tgt="3602" wght="-4.6893087485510314" />
        <Con id="5222" src="606" tgt="3994" wght="-1.6079978015792067" />
        <Con id="5226" src="4372" tgt="3388" wght="-1.1565132052282641" />
        <Con id="5265" src="4361" tgt="1613" wght="0.13754601575405956" />
        <Con id="5268" src="2725" tgt="5032" wght="1.557046062321747" />
        <Con id="5331" src="5329" tgt="1049" wght="2.4861282303558774" />
        <Con id="5334" src="3667" tgt="2719" wght="2.9006311088723646" />
        <Con id="5348" src="1428" tgt="5347" wght="-3.2428979858845053" />
        <Con id="5349" src="5347" tgt="304" wght="-4.6833150053218917" />
        <Con id="5350" src="73" tgt="4029" wght="-2.4732723836500647" />
        <Con id="5360" src="2725" tgt="6" wght="-0.11865576250329496" />
        <Con id="5371" src="4" tgt="5370" wght="1.4670033178203195" />
        <Con id="5372" src="5370" tgt="757" wght="-1.5490807195978811" />
        <Con id="5383" src="1895" tgt="6" wght="1.8727375880405057" />
        <Con id="5453" src="2217" tgt="5032" wght="-3.99945128391634" />
        <Con id="5454" src="2128" tgt="4113" wght="-2.2274671554392143" />
        <Con id="5460" src="3" tgt="3001" wght="-2.76995325230245" />
        <Con id="5478" src="4372" tgt="8" wght="-2.9213762743683533" />
        <Con id="5487" src="3994" tgt="3240" wght="-1.3824748772833906" />
        <Con id="5533" src="2593" tgt="2871" wght="-2.2238651132521396" />
        <Con id="5537" src="3667" tgt="3122" wght="-4.770515730880228" />
        <Con id="5551" src="5329" tgt="4376" wght="0.30593772419938792" />
        <Con id="5572" src="1002" tgt="5571" wght="2.8016766598089728" />
        <Con id="5573" src="5571" tgt="757" wght="-0.14620666549850253" />
        <Con id="5613" src="4743" tgt="2181" wght="-1.1607941155426684" />
        <Con id="5614" src="1129" tgt="5370" wght="-0.5471010327854352" />
        <Con id="5615" src="5571" tgt="189" wght="-1.2875223838091898" />
        <Con id="5656" src="2" tgt="5655" wght="1.3033406093555544" />
        <Con id="5657" src="5655" tgt="4361" wght="3.3318709685837611" />
        <Con id="5676" src="1395" tgt="3216" wght="1.6440122810146496" />
        <Con id="5677" src="3388" tgt="3161" wght="-5" />
        <Con id="5699" src="1" tgt="3906" wght="4.0731262129605872" />
        <Con id="5700" src="1395" tgt="4662" wght="-4.7178594807452372" />
        <Con id="5714" src="3111" tgt="5347" wght="-3.956802502997264" />
        <Con id="5728" src="606" tgt="1041" wght="0.21199924980552776" />
        <Con id="5746" src="4743" tgt="1895" wght="-2.6794050959570868" />
        <Con id="5793" src="1049" tgt="3388" wght="-5" />
        <Con id="5807" src="4361" tgt="3161" wght="-3.5816007008674835" />
        <Con id="5830" src="4743" tgt="442" wght="3.7228307150689175" />
        <Con id="5889" src="3001" tgt="2181" wght="3.9603830091888939" />
        <Con id="5926" src="3111" tgt="4376" wght="3.3449724918608386" />
        <Con id="5937" src="1613" tgt="3602" wght="0.19030027650498993" />
        <Con id="5961" src="4376" tgt="73" wght="3.4208683908591686" />
        <Con id="6054" src="3122" tgt="4113" wght="4.04511856599366" />
        <Con id="6080" src="5329" tgt="304" wght="-3.7546969860161985" />
        <Con id="6095" src="5655" tgt="1041" wght="-3.3672853383834558" />
        <Con id="6111" src="4638" tgt="1613" wght="-3.031969567872201" />
        <Con id="6115" src="3" tgt="3111" wght="4.3140653196259384" />
        <Con id="6123" src="3230" tgt="4322" wght="-3.0189788175522292" />
        <Con id="6139" src="1129" tgt="5347" wght="3.2005834046845503" />
        <Con id="6198" src="4" tgt="5347" wght="-2.0164354956158617" />
        <Con id="6238" src="930" tgt="2730" wght="0.64289272839639366" />
        <Con id="6247" src="3884" tgt="2217" wght="4.98186278362311" />
        <Con id="6249" src="110" tgt="3590" wght="-3.2576696794471451" />
        <Con id="6267" src="1604" tgt="3344" wght="-4.99565805164436" />
        <Con id="6288" src="2217" tgt="5370" wght="-4.5598093499703811" />
        <Con id="6289" src="4638" tgt="1049" wght="0.73932122866163807" />
        <Con id="6316" src="5" tgt="6315" wght="-1.9891937351634827" />
        <Con id="6317" src="6315" tgt="1823" wght="-3.847279680483279" />
        <Con id="6381" src="2217" tgt="3344" wght="-5" />
        <Con id="6384" src="721" tgt="6383" wght="5" />
        <Con id="6385" src="6383" tgt="88" wght="0.37315924724843885" />
        <Con id="6387" src="6315" tgt="408" wght="0.090263316696077789" />
        <Con id="6430" src="2" tgt="6429" wght="-0.80875175097636953" />
        <Con id="6431" src="6429" tgt="7" wght="5" />
        <Con id="6435" src="1129" tgt="5571" wght="-4.5257444599853285" />
        <Con id="6436" src="110" tgt="3040" wght="5" />
        <Con id="6438" src="3230" tgt="4662" wght="3.3360845266450974" />
        <Con id="6439" src="422" tgt="6429" wght="4.3813299965199572" />
        <Con id="6466" src="4361" tgt="2593" wght="3.9626114069077962" />
        <Con id="6474" src="512" tgt="6473" wght="2.6071374746088254" />
        <Con id="6478" src="2217" tgt="2719" wght="0.58147686441911139" />
        <Con id="6483" src="3884" tgt="5370" wght="-1.6337904415479945" />
        <Con id="6514" src="3" tgt="3732" wght="-2.8623870630158352" />
        <Con id="6540" src="606" tgt="4558" wght="1.4659971760165378" />
        <Con id="6573" src="3010" tgt="4113" wght="-5" />
        <Con id="6579" src="3205" tgt="4322" wght="3.5612591227453834" />
        <Con id="6582" src="4743" tgt="6581" wght="3.840229792910046" />
        <Con id="6583" src="6581" tgt="512" wght="3.6445372787321" />
        <Con id="6589" src="2871" tgt="200" wght="-4.0681700622108048" />
        <Con id="6624" src="4322" tgt="6623" wght="-0.42572632989629428" />
        <Con id="6625" src="6623" tgt="721" wght="3.9174361535458124" />
        <Con id="6635" src="6315" tgt="3240" wght="1.6194160608607455" />
        <Con id="6640" src="6623" tgt="4662" wght="-2.8892790231968384" />
        <Con id="6664" src="3732" tgt="6663" wght="-0.63103561679749975" />
        <Con id="6665" src="6663" tgt="73" wght="1.2643119427877882" />
        <Con id="6681" src="930" tgt="3230" wght="5" />
        <Con id="6726" src="6623" tgt="3122" wght="5" />
        <Con id="6752" src="1002" tgt="6751" wght="-1.936354017687016" />
        <Con id="6761" src="5329" tgt="4558" wght="-0.982333144158031" />
        <Con id="6832" src="6663" tgt="8" wght="3.73162015258623" />
        <Con id="6838" src="3884" tgt="3602" wght="2.1693552312962963" />
        <Con id="6845" src="6429" tgt="2425" wght="-5" />
        <Con id="6876" src="512" tgt="6429" wght="-0.32511080961528349" />
        <Con id="6881" src="4361" tgt="6383" wght="4.937602629479926" />
        <Con id="6886" src="6663" tgt="10" wght="2.3476686519816052" />
        <Con id="6916" src="6751" tgt="6915" wght="-1.0416567002876409" />
        <Con id="6917" src="6915" tgt="88" wght="-2.622928309571555" />
        <Con id="6923" src="214" tgt="6922" wght="2.9996389887323138" />
        <Con id="6924" src="6922" tgt="1049" wght="2.010508580620733" />
        <Con id="6930" src="3884" tgt="3590" wght="-0.9301758877136963" />
        <Con id="6935" src="1588" tgt="2425" wght="-2.1497295957458373" />
        <Con id="6936" src="251" tgt="6663" wght="-2.862662028821878" />
        <Con id="6988" src="5347" tgt="3994" wght="3.5961391649595482" />
        <Con id="6996" src="6473" tgt="1895" wght="2.900653159999544" />
        <Con id="7007" src="2128" tgt="3590" wght="-3.2104676457776389" />
        <Con id="7027" src="5347" tgt="3230" wght="0.92380025725751924" />
        <Con id="7054" src="3122" tgt="3590" wght="-1.6951537273464556" />
        <Con id="7078" src="88" tgt="6663" wght="-1.097240601980588" />
        <Con id="7087" src="7085" tgt="2128" wght="-1.7589460063804889" />
        <Con id="7093" src="6623" tgt="88" wght="3.0025137572480092" />
        <Con id="7120" src="4385" tgt="3311" wght="-0.13330724650882708" />
        <Con id="7169" src="6429" tgt="4372" wght="-3.9930927633362527" />
        <Con id="7172" src="4376" tgt="2725" wght="-2.2457643628072206" />
        <Con id="7188" src="5370" tgt="4638" wght="-3.20831133686056" />
        <Con id="7206" src="6751" tgt="3732" wght="3.8397521724329975" />
        <Con id="7269" src="2730" tgt="6663" wght="4.0481118829290281" />
        <Con id="7314" src="3388" tgt="7313" wght="1.4394326653658758" />
        <Con id="7315" src="7313" tgt="6" wght="-3.6137096676975489" />
        <Con id="7323" src="3111" tgt="3001" wght="-1.9335027175736688" />
        <Con id="7331" src="1041" tgt="4113" wght="-4.69207502895784" />
        <Con id="7361" src="1613" tgt="7360" wght="-1.8581550512340437" />
        <Con id="7362" src="7360" tgt="3732" wght="4.0438365417985231" />
        <Con id="7375" src="606" tgt="7374" wght="0.33516895934432933" />
        <Con id="7376" src="7374" tgt="9" wght="-2.24691071211352" />
        <Con id="7404" src="7402" tgt="454" wght="1.17885679904398" />
        <Con id="7445" src="5655" tgt="417" wght="3.1214136130188268" />
        <Con id="7452" src="1571" tgt="7451" wght="2.4835722841276864" />
        <Con id="7453" src="7451" tgt="512" wght="-2.68412453112642" />
        <Con id="7486" src="1" tgt="7485" wght="-2.9262537394307588" />
        <Con id="7487" src="7485" tgt="9" wght="4.7046716792552035" />
        <Con id="7521" src="3010" tgt="6383" wght="1.5878495837317284" />
        <Con id="7541" src="1895" tgt="3732" wght="1.4524352933037648" />
        <Con id="7549" src="4305" tgt="189" wght="0.18046597603532111" />
        <Con id="7579" src="7485" tgt="3216" wght="-1.3133087059910222" />
        <Con id="7583" src="1041" tgt="7374" wght="-1.2052335567199455" />
        <Con id="7611" src="7085" tgt="6663" wght="-3.561415504394986" />
        <Con id="7618" src="930" tgt="7313" wght="-1.54558421958802" />
        <Con id="7630" src="2725" tgt="3161" wght="-1.939856411505688" />
        <Con id="7708" src="7402" tgt="4662" wght="3.7418345449093011" />
        <Con id="7709" src="3828" tgt="4662" wght="-1.3006446370559437" />
        <Con id="7713" src="721" tgt="5032" wght="-1.0356886488884496" />
        <Con id="7715" src="3448" tgt="7714" wght="-1.6343230108944344" />
        <Con id="7716" src="7714" tgt="7402" wght="-1.5600579012117906" />
        <Con id="7734" src="3216" tgt="1041" wght="-1.8459589496156081" />
        <Con id="7746" src="5329" tgt="7745" wght="-3.5562597214850475" />
        <Con id="7747" src="7745" tgt="3240" wght="1.4582622641989134" />
        <Con id="7792" src="2181" tgt="6915" wght="-2.6199742481395223" />
        <Con id="7824" src="2045" tgt="4558" wght="2.4719556399402212" />
        <Con id="7856" src="4743" tgt="5571" wght="2.6565759723578135" />
        <Con id="7857" src="5347" tgt="1823" wght="-0.29515639406351546" />
        <Con id="7859" src="7402" tgt="6429" wght="3.3406643272393408" />
        <Con id="7868" src="110" tgt="7867" wght="-2.7389946626726438" />
        <Con id="7869" src="7867" tgt="251" wght="5" />
        <Con id="7881" src="6915" tgt="5571" wght="4.8147222274702921" />
        <Con id="7925" src="5655" tgt="422" wght="-2.9558072863108555" />
        <Con id="7929" src="7402" tgt="6383" wght="-2.8298191593911648" />
        <Con id="7935" src="3216" tgt="2871" wght="0.8598627895116806" />
        <Con id="7940" src="214" tgt="3906" wght="4.40218789544971" />
        <Con id="7952" src="4372" tgt="7951" wght="-5" />
        <Con id="7953" src="7951" tgt="4029" wght="0.96624918899530177" />
        <Con id="7961" src="6922" tgt="304" wght="-0.79432712893354418" />
        <Con id="7968" src="200" tgt="7967" wght="-3.4839627871462517" />
        <Con id="7969" src="7967" tgt="9" wght="1.4252952543520216" />
        <Con id="7994" src="1588" tgt="4638" wght="5" />
        <Con id="8015" src="7451" tgt="7714" wght="5" />
        <Con id="8025" src="4" tgt="6315" wght="-2.5183033559302661" />
        <Con id="8046" src="3" tgt="7714" wght="-0.030397192059286315" />
        <Con id="8051" src="7485" tgt="606" wght="4.9424607654361186" />
        <Con id="8063" src="208" tgt="4558" wght="1.9138867249969744" />
        <Con id="8074" src="7951" tgt="4376" wght="5" />
        <Con id="8079" src="1604" tgt="7374" wght="-1.3653665949937761" />
        <Con id="8086" src="1604" tgt="7745" wght="-3.6372668999735671" />
        <Con id="8096" src="757" tgt="8095" wght="-4.38027373071348" />
        <Con id="8097" src="8095" tgt="8" wght="2.6988360371780757" />
        <Con id="8102" src="7745" tgt="6663" wght="-1.0910141747444868" />
        <Con id="8106" src="422" tgt="2221" wght="-5" />
        <Con id="8125" src="3439" tgt="110" wght="2.8533979730935326" />
        <Con id="8127" src="7485" tgt="7360" wght="1.4939124623098095" />
        <Con id="8139" src="5347" tgt="3602" wght="0.93265178693188877" />
        <Con id="8145" src="1049" tgt="4305" wght="-3.1269067743355556" />
        <Con id="8151" src="4305" tgt="2719" wght="0.95077210436036552" />
        <Con id="8176" src="7085" tgt="3732" wght="-0.12469442626624345" />
        <Con id="8205" src="5032" tgt="417" wght="0.47462205592719953" />
        <Con id="8233" src="7745" tgt="7313" wght="-2.5448808705980661" />
        <Con id="8246" src="3397" tgt="8095" wght="2.7240586520989343" />
        <Con id="8259" src="512" tgt="2725" wght="1.6002128779363907" />
        <Con id="8267" src="1428" tgt="7313" wght="3.1046094726326654" />
        <Con id="8285" src="214" tgt="8284" wght="3.2076082461658695" />
        <Con id="8286" src="8284" tgt="208" wght="-1.9713150261112291" />
        <Con id="8300" src="5329" tgt="3010" wght="5" />
        <Con id="8437" src="3111" tgt="6663" wght="0.61104559299513472" />
        <Con id="8470" src="7313" tgt="3040" wght="3.7260369662722725" />
        <Con id="8512" src="4638" tgt="3240" wght="-3.5815796866249587" />
        <Con id="8521" src="3388" tgt="4662" wght="0.34044723738642524" />
        <Con id="8540" src="6751" tgt="7485" wght="3.3096737245549281" />
        <Con id="8549" src="390" tgt="4662" wght="0.720245721591898" />
        <Con id="8564" src="6383" tgt="2425" wght="-4.7256847598081988" />
        <Con id="8577" src="7085" tgt="4743" wght="5" />
        <Con id="8620" src="4372" tgt="3240" wght="-5" />
        <Con id="8645" src="1002" tgt="8644" wght="-1.5945679622960198" />
        <Con id="8646" src="8644" tgt="5329" wght="5" />
        <Con id="8649" src="5655" tgt="3906" wght="5" />
        <Con id="8688" src="1129" tgt="4558" wght="2.7844599308623517" />
        <Con id="8734" src="6581" tgt="4372" wght="-3.7964100293979164" />
        <Con id="8754" src="1895" tgt="4385" wght="0.95675192451130453" />
        <Con id="8788" src="7360" tgt="4322" wght="-1.9752365833524816" />
        <Con id="8790" src="3161" tgt="3906" wght="-1.4343144441320448" />
        <Con id="8793" src="7867" tgt="6623" wght="-4.6200539390334212" />
        <Con id="8829" src="2593" tgt="3240" wght="1.1186096399154217" />
        <Con id="8859" src="3" tgt="5655" wght="3.2776251743773961" />
        <Con id="8864" src="7451" tgt="1002" wght="-0.47889428951929425" />
        <Con id="8933" src="4" tgt="8932" wght="4.2212533803867238" />
        <Con id="8934" src="8932" tgt="1129" wght="4.9858436911765862" />
        <Con id="8939" src="8878" tgt="2593" wght="4.0593314476856239" />
        <Con id="9064" src="2725" tgt="9063" wght="-2.0062492711138984" />
        <Con id="9065" src="9063" tgt="1823" wght="-1.8474387259582961" />
        <Con id="9080" src="304" tgt="9079" wght="0.55014583848907761" />
        <Con id="9081" src="9079" tgt="7" wght="5" />
        <Con id="9092" src="4361" tgt="442" wght="-3.8554431120181" />
        <Con id="9130" src="7967" tgt="4113" wght="4.3572804446875688" />
        <Con id="9171" src="5329" tgt="6915" wght="-4.9825515297807508" />
        <Con id="9274" src="3439" tgt="4376" wght="3.5431314491936456" />
        <Con id="9290" src="8932" tgt="1895" wght="0.198751098012881" />
        <Con id="9291" src="6922" tgt="1895" wght="1.9120480660535837" />
        <Con id="9303" src="1588" tgt="8932" wght="0.994220185852813" />
        <Con id="9339" src="4361" tgt="4385" wght="-0.49091817563420265" />
        <Con id="9345" src="5370" tgt="2221" wght="-0.21454000833320355" />
        <Con id="9349" src="5" tgt="7485" wght="-0.13592788956310381" />
        <Con id="9353" src="7951" tgt="1041" wght="3.2279556268723884" />
        <Con id="9366" src="8932" tgt="1002" wght="2.9793323470834947" />
        <Con id="9369" src="4372" tgt="2730" wght="-1.6553300082213678" />
        <Con id="9404" src="6581" tgt="7967" wght="-4.6052061870284255" />
        <Con id="9412" src="3828" tgt="8644" wght="-4.6495403187040152" />
        <Con id="9429" src="454" tgt="9428" wght="-2.78820135454348" />
        <Con id="9444" src="1895" tgt="5032" wght="-3.3754324417046893" />
        <Con id="9518" src="408" tgt="8644" wght="-4.97943924811401" />
        <Con id="9533" src="3205" tgt="9532" wght="-0.0509438186575723" />
        <Con id="9534" src="9532" tgt="3994" wght="4.3377546303632837" />
        <Con id="9554" src="422" tgt="5571" wght="-3.9857192997661377" />
        <Con id="9610" src="4743" tgt="9609" wght="0.88357630056807746" />
        <Con id="9611" src="9609" tgt="304" wght="3.0547996609850503" />
        <Con id="9622" src="6663" tgt="9621" wght="-1.6549792835897104" />
        <Con id="9623" src="9621" tgt="3397" wght="-2.0330901202493981" />
        <Con id="9634" src="3010" tgt="9633" wght="-2.6009972040032538" />
        <Con id="9635" src="9633" tgt="200" wght="-2.46858658147327" />
        <Con id="9650" src="4743" tgt="3397" wght="-2.9737994983275717" />
        <Con id="9654" src="417" tgt="9653" wght="-3.871263984804425" />
        <Con id="9655" src="9653" tgt="1604" wght="1.566946529079781" />
        <Con id="9693" src="3994" tgt="3311" wght="-1.2649753191416973" />
        <Con id="9694" src="4322" tgt="200" wght="1.9418085488309496" />
        <Con id="9729" src="1571" tgt="6922" wght="-1.8534865922299077" />
        <Con id="9776" src="8878" tgt="1041" wght="-4.37252051236991" />
        <Con id="9779" src="6922" tgt="454" wght="-3.3484857901930809" />
        <Con id="9780" src="4743" tgt="8095" wght="5" />
        <Con id="9795" src="3161" tgt="6" wght="-3.7909247472829648" />
        <Con id="9802" src="4743" tgt="1041" wght="1.5723818851587852" />
        <Con id="9898" src="9609" tgt="1389" wght="-0.38445541539375128" />
        <Con id="9925" src="3111" tgt="6623" wght="0.5236364586940222" />
        <Con id="9949" src="8878" tgt="3311" wght="-2.969342129517853" />
        <Con id="9957" src="7313" tgt="4558" wght="-1.5688347941632539" />
        <Con id="9988" src="1395" tgt="9987" wght="2.7019967816974573" />
        <Con id="9989" src="9987" tgt="251" wght="4.9462471687473535" />
        <Con id="9990" src="3884" tgt="9428" wght="2.3480593171215132" />
        <Con id="9993" src="8284" tgt="6922" wght="3.4902547461891187" />
        <Con id="10088" src="7485" tgt="2217" wght="-0.74765743099690174" />
        <Con id="10091" src="3994" tgt="10090" wght="-4.4708241505574735" />
        <Con id="10092" src="10090" tgt="1604" wght="-3.7200647939721496" />
        <Con id="10132" src="8284" tgt="3040" wght="-0.25471063950342254" />
        <Con id="10139" src="3439" tgt="6663" wght="-1.8152837751180733" />
        <Con id="10157" src="2128" tgt="7745" wght="-4.1744454145108527" />
        <Con id="10171" src="7745" tgt="3122" wght="3.72111848440238" />
        <Con id="10188" src="9532" tgt="4029" wght="0.96220277555505929" />
        <Con id="10202" src="1428" tgt="2871" wght="-2.0507949337075462" />
        <Con id="10234" src="2221" tgt="9063" wght="1.0854409233984426" />
        <Con id="10267" src="73" tgt="4558" wght="0.21319200266181057" />
        <Con id="10286" src="4385" tgt="9609" wght="-1.1188362783521286" />
        <Con id="10310" src="6315" tgt="512" wght="4.9909455468001633" />
        <Con id="10321" src="9532" tgt="200" wght="4.8198873744206132" />
        <Con id="10334" src="189" tgt="9653" wght="1.4247700901814555" />
        <Con id="10351" src="9532" tgt="1428" wght="0.1767294027908288" />
        <Con id="10371" src="9063" tgt="7313" wght="0.92167657099726319" />
        <Con id="10374" src="110" tgt="5032" wght="-4.35368278359965" />
        <Con id="10384" src="8644" tgt="1076" wght="-0.38484644375705224" />
        <Con id="10483" src="7451" tgt="1395" wght="-4.2993214374844211" />
        <Con id="10485" src="4558" tgt="1076" wght="-1.142316884360641" />
        <Con id="10491" src="7714" tgt="9653" wght="-0.56388560123769449" />
        <Con id="10521" src="7085" tgt="6" wght="-3.8507359143824744" />
        <Con id="10525" src="9609" tgt="5370" wght="2.5515599487567546" />
        <Con id="10531" src="3216" tgt="10090" wght="3.6047633096737508" />
        <Con id="10532" src="73" tgt="9428" wght="-5" />
        <Con id="10538" src="3388" tgt="3240" wght="-2.7786792425483111" />
        <Con id="10637" src="1" tgt="9609" wght="-0.28199430423187294" />
        <Con id="10665" src="1129" tgt="3590" wght="-4.1158264813964189" />
        <Con id="10693" src="251" tgt="7967" wght="-3.7122295851577984" />
        <Con id="10696" src="512" tgt="10695" wght="2.6417915384094766" />
        <Con id="10697" src="10695" tgt="73" wght="4.8237603168665464" />
        <Con id="10699" src="2045" tgt="10698" wght="-5" />
        <Con id="10700" src="10698" tgt="304" wght="-1.3842854183236222" />
        <Con id="10706" src="1895" tgt="10705" wght="0.968863758045391" />
        <Con id="10707" src="10705" tgt="8878" wght="1.7477041260385668" />
        <Con id="10758" src="2725" tgt="7967" wght="-3.7911933110626777" />
        <Con id="10783" src="9063" tgt="3994" wght="0.013861356120256393" />
        <Con id="10788" src="1389" tgt="5329" wght="3.5914403850156815" />
        <Con id="10819" src="10695" tgt="1823" wght="-3.8196808114333378" />
        <Con id="10837" src="6429" tgt="3205" wght="-0.66551214413688919" />
        <Con id="10847" src="7714" tgt="10846" wght="-2.5552775952860527" />
        <Con id="10848" src="10846" tgt="2725" wght="4.6530296640035793" />
        <Con id="10881" src="3732" tgt="10880" wght="-4.1195382860392185" />
        <Con id="10882" src="10880" tgt="5032" wght="-2.7745696966566262" />
        <Con id="10892" src="442" tgt="10698" wght="-3.4841136026878772" />
        <Con id="10906" src="7451" tgt="10705" wght="-3.6622994752576434" />
        <Con id="10942" src="10695" tgt="9621" wght="4.9033664347366921" />
        <Con id="10968" src="5" tgt="10967" wght="-4.5832395701428936" />
        <Con id="10969" src="10967" tgt="3040" wght="3.3024617713643867" />
        <Con id="10986" src="7867" tgt="4322" wght="-5" />
        <Con id="11016" src="5655" tgt="8644" wght="2.5371082484069087" />
        <Con id="11029" src="390" tgt="5571" wght="-3.6301325249073653" />
        <Con id="11034" src="1895" tgt="9633" wght="-0.36582290946777074" />
        <Con id="11042" src="4662" tgt="9079" wght="-3.0500133342087845" />
        <Con id="11080" src="3388" tgt="9633" wght="0.55431830452666331" />
        <Con id="11109" src="3602" tgt="10" wght="1.8358432376944807" />
        <Con id="11141" src="2181" tgt="4662" wght="-0.282327397788929" />
        <Con id="11146" src="3602" tgt="7967" wght="-4.3243013278996232" />
        <Con id="11158" src="4372" tgt="956" wght="-2.0462497548339007" />
        <Con id="11234" src="3230" tgt="11233" wght="-2.1376508576712889" />
        <Con id="11235" src="11233" tgt="4376" wght="1.24176964235846" />
        <Con id="11250" src="1" tgt="10846" wght="0.023662017634801802" />
        <Con id="11280" src="3" tgt="11279" wght="2.3762857554590942" />
        <Con id="11281" src="11279" tgt="956" wght="2.2160946109282214" />
        <Con id="11288" src="6623" tgt="5571" wght="-2.0568913227538297" />
        <Con id="11363" src="6429" tgt="5347" wght="1.3548883531834164" />
        <Con id="11451" src="5370" tgt="7867" wght="3.796270652265485" />
        <Con id="11489" src="8878" tgt="11488" wght="2.6923089724137763" />
        <Con id="11490" src="11488" tgt="110" wght="1.6150218216131256" />
        <Con id="11641" src="9079" tgt="8" wght="-0.0051454785856965019" />
        <Con id="11654" src="8644" tgt="7313" wght="-5" />
        <Con id="11681" src="2" tgt="7360" wght="2.2219135050062406" />
        <Con id="11688" src="3994" tgt="9653" wght="2.543813259685789" />
        <Con id="11750" src="3602" tgt="11749" wght="-3.0092920979393969" />
        <Con id="11751" src="11749" tgt="3388" wght="5" />
        <Con id="11788" src="73" tgt="11787" wght="0.72691930381370828" />
        <Con id="11789" src="11787" tgt="10" wght="1.1922141656848486" />
        <Con id="11815" src="6473" tgt="10880" wght="-3.6825912801138485" />
        <Con id="11825" src="10090" tgt="956" wght="3.1022378216942856" />
        <Con id="11851" src="8284" tgt="9621" wght="0.0021417022843481792" />
        <Con id="11857" src="4376" tgt="9063" wght="-4.400252700065443" />
        <Con id="11909" src="6751" tgt="7" wght="3.3687752269777995" />
        <Con id="11930" src="7313" tgt="3397" wght="-0.6684163981492528" />
        <Con id="11949" src="3240" tgt="10967" wght="3.9157476478896394" />
        <Con id="11972" src="8284" tgt="11971" wght="-3.2016403824520929" />
        <Con id="11973" src="11971" tgt="3205" wght="-0.81299771153064349" />
        <Con id="11994" src="4322" tgt="11993" wght="-5" />
        <Con id="11995" src="11993" tgt="3010" wght="1.5026364233807223" />
        <Con id="12034" src="6473" tgt="8095" wght="-0.36758361865900413" />
        <Con id="12125" src="4322" tgt="9633" wght="3.8856557212799991" />
        <Con id="12289" src="3397" tgt="7374" wght="4.0545613390920385" />
        <Con id="12292" src="7085" tgt="12291" wght="3.2016009037413671" />
        <Con id="12293" src="12291" tgt="757" wght="5" />
        <Con id="12314" src="7485" tgt="4558" wght="-3.49314947762279" />
        <Con id="12429" src="390" tgt="9633" wght="2.4102564795209842" />
        <Con id="12438" src="11279" tgt="3590" wght="3.1814163639846216" />
        <Con id="12472" src="10846" tgt="3994" wght="-3.453132376853532" />
        <Con id="12525" src="4638" tgt="6429" wght="-4.4780217657567549" />
        <Con id="12562" src="5032" tgt="2593" wght="5" />
        <Con id="12582" src="1129" tgt="3040" wght="2.4930631117010145" />
        <Con id="12706" src="4361" tgt="2425" wght="-0.83498225947737614" />
        <Con id="12744" src="88" tgt="12743" wght="1.7214283989831356" />
        <Con id="12745" src="12743" tgt="6" wght="5" />
        <Con id="12766" src="4638" tgt="12765" wght="5" />
        <Con id="12781" src="12765" tgt="757" wght="4.0296207797485994" />
        <Con id="12793" src="1" tgt="12792" wght="4.0667045604318632" />
        <Con id="12794" src="12792" tgt="1895" wght="4.8716947536316209" />
        <Con id="12808" src="9609" tgt="3828" wght="4.1385074965547828" />
        <Con id="12905" src="5347" tgt="11787" wght="2.7796538724686233" />
        <Con id="12973" src="512" tgt="12972" wght="-3.2712403684854507" />
        <Con id="12974" src="12972" tgt="417" wght="4.1086471145370966" />
        <Con id="13016" src="1604" tgt="13015" wght="4.6805079639169813" />
        <Con id="13017" src="13015" tgt="2425" wght="4.97059536070068" />
        <Con id="13019" src="189" tgt="13018" wght="-0.56615757851291026" />
        <Con id="13020" src="13018" tgt="73" wght="4.6920324773850011" />
        <Con id="13054" src="5655" tgt="9633" wght="-3.8936383235040717" />
        <Con id="13086" src="88" tgt="10090" wght="-2.8432310908471967" />
        <Con id="13087" src="1002" tgt="9532" wght="-1.3206915574842901" />
        <Con id="13110" src="2" tgt="9621" wght="-5" />
        <Con id="13117" src="12765" tgt="8878" wght="-0.12852620147407134" />
        <Con id="13126" src="5" tgt="13125" wght="-1.1845553381074856" />
        <Con id="13127" src="13125" tgt="7085" wght="-2.1896513474635757" />
        <Con id="13139" src="13018" tgt="9987" wght="-3.2036638495041094" />
        <Con id="13161" src="4743" tgt="4638" wght="-2.319766779904286" />
        <Con id="13205" src="4638" tgt="13015" wght="-3.5802424584999839" />
        <Con id="13231" src="1389" tgt="9621" wght="-3.1679519387649475" />
        <Con id="13253" src="454" tgt="7745" wght="0.63201861592113162" />
        <Con id="13257" src="6623" tgt="6" wght="2.254826535519193" />
        <Con id="13282" src="6383" tgt="11749" wght="-2.7384525495126004" />
        <Con id="13286" src="422" tgt="13285" wght="3.74089372874963" />
        <Con id="13287" src="13285" tgt="5329" wght="-3.7995924422542329" />
        <Con id="13324" src="9609" tgt="7967" wght="0.59955534345935013" />
        <Con id="13330" src="13285" tgt="1428" wght="-2.5741809300716572" />
        <Con id="13344" src="1395" tgt="13343" wght="3.2428432269979384" />
        <Con id="13345" src="13343" tgt="3122" wght="3.8917933976322869" />
        <Con id="13390" src="10695" tgt="11749" wght="1.7098402806596642" />
        <Con id="13452" src="12765" tgt="9987" wght="0.623092705216237" />
        <Con id="13459" src="10698" tgt="7" wght="0.8784048134386282" />
        <Con id="13467" src="6581" tgt="10880" wght="0.92716157717918757" />
        <Con id="13514" src="12792" tgt="13018" wght="4.1596702793586831" />
        <Con id="13531" src="8284" tgt="606" wght="1.6448517229732569" />
        <Con id="13535" src="13343" tgt="2425" wght="4.15132814016459" />
        <Con id="13537" src="7402" tgt="13018" wght="0.84042879679582372" />
        <Con id="13562" src="11233" tgt="7967" wght="-0.016004317800415575" />
        <Con id="13598" src="5571" tgt="1049" wght="-5" />
        <Con id="13640" src="5" tgt="13639" wght="-2.2252607988701003" />
        <Con id="13641" src="13639" tgt="2217" wght="5" />
        <Con id="13658" src="13285" tgt="10" wght="2.9151842434318471" />
        <Con id="13662" src="251" tgt="13015" wght="-2.5253351310556735" />
        <Con id="13665" src="208" tgt="13664" wght="0.0017993841542844613" />
        <Con id="13666" src="13664" tgt="2730" wght="4.6106565009437359" />
        <Con id="13702" src="12765" tgt="11488" wght="4.3509662871854564" />
        <Con id="13734" src="512" tgt="13733" wght="2.4029847034666307" />
        <Con id="13735" src="13733" tgt="442" wght="-0.95880654240504071" />
        <Con id="13757" src="7451" tgt="2221" wght="2.8413990932047271" />
        <Con id="13778" src="6315" tgt="12972" wght="3.4957155290441957" />
        <Con id="13812" src="12972" tgt="1129" wght="-3.7462978686422539" />
        <Con id="13829" src="422" tgt="3828" wght="0.27423191798400726" />
        <Con id="13865" src="9987" tgt="9" wght="2.9856673070251918" />
        <Con id="13894" src="6315" tgt="88" wght="-1.624721540010283" />
        <Con id="13895" src="4305" tgt="8" wght="-2.7252406098590303" />
        <Con id="13921" src="110" tgt="13920" wght="2.6748987613245845" />
        <Con id="13922" src="13920" tgt="956" wght="2.6672637665572587" />
        <Con id="13938" src="2181" tgt="13937" wght="-4.9104437462617634" />
        <Con id="13939" src="13937" tgt="442" wght="5" />
        <Con id="13964" src="3205" tgt="11279" wght="-0.91967174227311888" />
        <Con id="13967" src="7951" tgt="10846" wght="-3.3242127116622671" />
        <Con id="14082" src="7867" tgt="1428" wght="-1.1478598301218574" />
        <Con id="14096" src="12743" tgt="4558" wght="-2.9872023677263941" />
        <Con id="14098" src="11971" tgt="3828" wght="-0.27654396081337795" />
        <Con id="14145" src="2730" tgt="9" wght="-3.0208072059393056" />
        <Con id="14180" src="13285" tgt="512" wght="0.024044946383450228" />
        <Con id="14236" src="5329" tgt="6" wght="1.6849983759557068" />
        <Con id="14239" src="721" tgt="2425" wght="-2.2208764913010244" />
        <Con id="14255" src="8878" tgt="304" wght="-5" />
        <Con id="14264" src="4638" tgt="2871" wght="2.1272638856714066" />
        <Con id="14281" src="2" tgt="7485" wght="-5" />
        <Con id="14291" src="7313" tgt="304" wght="-0.079420274424856135" />
        <Con id="14309" src="208" tgt="4662" wght="-3.5790683733254172" />
        <Con id="14377" src="5032" tgt="10695" wght="-4.4801140342901649" />
        <Con id="14417" src="8932" tgt="7714" wght="0.64091399715375486" />
        <Con id="14441" src="13018" tgt="9" wght="-2.9315614577618394" />
        <Con id="14465" src="12743" tgt="417" wght="1.7809969947963127" />
        <Con id="14498" src="5" tgt="14497" wght="-1.8219393971390037" />
        <Con id="14499" src="14497" tgt="3205" wght="5" />
        <Con id="14505" src="3122" tgt="7374" wght="3.4579437300391542" />
        <Con id="14603" src="7867" tgt="1049" wght="-3.5204235358543059" />
        <Con id="14608" src="3" tgt="2217" wght="3.5907359336620934" />
        <Con id="14681" src="4662" tgt="11787" wght="-2.8523665607078121" />
        <Con id="14721" src="3906" tgt="11787" wght="1.7298360202935381" />
        <Con id="14730" src="8284" tgt="3439" wght="-2.4493010895495142" />
        <Con id="14798" src="200" tgt="9" wght="1.2068068432964456" />
        <Con id="14841" src="8932" tgt="11971" wght="-4.6456104516983032" />
        <Con id="14849" src="2217" tgt="757" wght="4.4548973994961187" />
        <Con id="14875" src="3884" tgt="408" wght="-2.3141448834728564" />
        <Con id="14878" src="5" tgt="6383" wght="1.1311009004014021" />
        <Con id="14884" src="4385" tgt="208" wght="-4.6042390076940434" />
        <Con id="14896" src="1613" tgt="14895" wght="2.1199074522487678" />
        <Con id="14897" src="14895" tgt="3230" wght="3.7573602406046995" />
        <Con id="14905" src="721" tgt="10695" wght="1.8718838079811109" />
        <Con id="14907" src="4322" tgt="3040" wght="-0.26086023084757032" />
        <Con id="14914" src="0" tgt="6429" wght="0.020112958366257632" />
        <Con id="14925" src="11279" tgt="3010" wght="-2.6759992658812695" />
        <Con id="14951" src="10090" tgt="4113" wght="3.4585396125326966" />
        <Con id="15023" src="13125" tgt="7402" wght="-1.6330166996425359" />
        <Con id="15069" src="2045" tgt="8932" wght="-4.3422900168201908" />
        <Con id="15072" src="721" tgt="15071" wght="1.083244477264997" />
        <Con id="15073" src="15071" tgt="1049" wght="4.5189115509229509" />
        <Con id="15075" src="12291" tgt="11993" wght="4.85006338422394" />
        <Con id="15130" src="13285" tgt="88" wght="-3.8269545925925326" />
        <Con id="15159" src="6473" tgt="9063" wght="3.1521407244226967" />
        <Con id="15223" src="4638" tgt="15222" wght="3.0975001135986688" />
        <Con id="15224" src="15222" tgt="5329" wght="3.6961675004628196" />
        <Con id="15243" src="13125" tgt="10695" wght="3.3473603513447565" />
        <Con id="15244" src="8644" tgt="3994" wght="2.2201093267529051" />
        <Con id="15255" src="5655" tgt="8" wght="-1.3282676547642587" />
        <Con id="15280" src="3448" tgt="956" wght="-1.8060607818584005" />
        <Con id="15282" src="1049" tgt="11279" wght="1.6723861924143189" />
        <Con id="15324" src="8644" tgt="4376" wght="-2.3652065558452007" />
        <Con id="15333" src="2221" tgt="10967" wght="4.3643893357525059" />
        <Con id="15376" src="3439" tgt="13733" wght="1.1258339508938537" />
        <Con id="15394" src="5" tgt="7451" wght="-3.03163860153008" />
        <Con id="15401" src="1" tgt="3994" wght="-1.0886364468879208" />
        <Con id="15476" src="6581" tgt="11971" wght="4.8837040195617023" />
        <Con id="15519" src="1" tgt="7360" wght="-3.5625812085345387" />
        <Con id="15704" src="7867" tgt="2593" wght="0.36670458446144311" />
        <Con id="15709" src="4376" tgt="13664" wght="-1.0477623872692035" />
        <Con id="15734" src="1389" tgt="15733" wght="0.73899494742519" />
        <Con id="15735" src="15733" tgt="4662" wght="5" />
        <Con id="15783" src="4558" tgt="15782" wght="-0.15963122705406227" />
        <Con id="15784" src="15782" tgt="7" wght="5" />
        <Con id="15801" src="1129" tgt="12743" wght="-5" />
        <Con id="15813" src="13733" tgt="3732" wght="0.74220248032361269" />
        <Con id="15817" src="6315" tgt="15816" wght="-1.9257170283599185" />
        <Con id="15818" src="15816" tgt="4361" wght="4.9966179612734987" />
        <Con id="15821" src="3828" tgt="10880" wght="0.0655808113515377" />
        <Con id="15841" src="6751" tgt="4113" wght="0.92869945336133242" />
        <Con id="15873" src="6751" tgt="12291" wght="-0.10372774675488472" />
        <Con id="15917" src="6751" tgt="13015" wght="-4.5521053439006209" />
        <Con id="15935" src="606" tgt="3397" wght="1.2940722983330488" />
        <Con id="15941" src="5370" tgt="10698" wght="-1.309572565369308" />
      </Connections>
    </Network>
  </Networks>
</Root>