﻿<?xml version="1.0" encoding="utf-8"?>
<Root>
  <ActivationFunctions>
    <Fn id="0" name="SteepenedSigmoid" prob="1" />
  </ActivationFunctions>
  <Networks>
    <Network id="332309" birthGen="41537" fitness="38.408332824707031">
      <Nodes>
        <Node type="bias" id="0" />
        <Node type="in" id="1" />
        <Node type="in" id="2" />
        <Node type="in" id="3" />
        <Node type="in" id="4" />
        <Node type="in" id="5" />
        <Node type="out" id="6" />
        <Node type="out" id="7" />
        <Node type="out" id="8" />
        <Node type="out" id="9" />
        <Node type="out" id="10" />
        <Node type="hid" id="107" />
        <Node type="hid" id="163" />
        <Node type="hid" id="237" />
        <Node type="hid" id="304" />
        <Node type="hid" id="350" />
        <Node type="hid" id="376" />
        <Node type="hid" id="388" />
        <Node type="hid" id="428" />
        <Node type="hid" id="434" />
        <Node type="hid" id="549" />
        <Node type="hid" id="637" />
        <Node type="hid" id="641" />
        <Node type="hid" id="684" />
        <Node type="hid" id="737" />
        <Node type="hid" id="774" />
        <Node type="hid" id="856" />
        <Node type="hid" id="872" />
        <Node type="hid" id="892" />
        <Node type="hid" id="908" />
        <Node type="hid" id="966" />
        <Node type="hid" id="998" />
        <Node type="hid" id="1038" />
        <Node type="hid" id="1175" />
        <Node type="hid" id="1366" />
        <Node type="hid" id="1424" />
        <Node type="hid" id="1595" />
        <Node type="hid" id="1652" />
        <Node type="hid" id="1670" />
        <Node type="hid" id="1687" />
        <Node type="hid" id="1724" />
        <Node type="hid" id="1781" />
        <Node type="hid" id="1839" />
        <Node type="hid" id="1850" />
        <Node type="hid" id="1913" />
        <Node type="hid" id="1979" />
        <Node type="hid" id="2148" />
        <Node type="hid" id="2170" />
        <Node type="hid" id="2369" />
        <Node type="hid" id="2388" />
        <Node type="hid" id="2394" />
        <Node type="hid" id="2417" />
        <Node type="hid" id="2451" />
        <Node type="hid" id="2462" />
        <Node type="hid" id="2594" />
        <Node type="hid" id="2611" />
        <Node type="hid" id="2641" />
        <Node type="hid" id="2736" />
        <Node type="hid" id="2827" />
        <Node type="hid" id="2859" />
        <Node type="hid" id="2950" />
        <Node type="hid" id="3079" />
        <Node type="hid" id="3121" />
        <Node type="hid" id="3160" />
        <Node type="hid" id="3215" />
        <Node type="hid" id="3244" />
        <Node type="hid" id="3372" />
        <Node type="hid" id="3402" />
        <Node type="hid" id="3454" />
        <Node type="hid" id="3595" />
        <Node type="hid" id="3630" />
        <Node type="hid" id="3667" />
        <Node type="hid" id="3672" />
        <Node type="hid" id="3781" />
        <Node type="hid" id="3800" />
        <Node type="hid" id="3976" />
        <Node type="hid" id="4107" />
        <Node type="hid" id="4181" />
        <Node type="hid" id="4294" />
        <Node type="hid" id="4299" />
        <Node type="hid" id="4330" />
        <Node type="hid" id="4392" />
        <Node type="hid" id="4655" />
        <Node type="hid" id="4698" />
        <Node type="hid" id="4721" />
        <Node type="hid" id="4915" />
        <Node type="hid" id="5378" />
        <Node type="hid" id="5406" />
        <Node type="hid" id="5423" />
        <Node type="hid" id="5450" />
        <Node type="hid" id="5481" />
        <Node type="hid" id="5489" />
        <Node type="hid" id="5497" />
        <Node type="hid" id="5604" />
        <Node type="hid" id="5653" />
        <Node type="hid" id="5684" />
        <Node type="hid" id="5774" />
        <Node type="hid" id="5787" />
        <Node type="hid" id="5849" />
        <Node type="hid" id="5880" />
        <Node type="hid" id="5952" />
        <Node type="hid" id="5960" />
        <Node type="hid" id="6047" />
        <Node type="hid" id="6182" />
        <Node type="hid" id="6274" />
        <Node type="hid" id="6335" />
        <Node type="hid" id="6379" />
        <Node type="hid" id="6590" />
        <Node type="hid" id="6627" />
        <Node type="hid" id="6664" />
        <Node type="hid" id="6700" />
        <Node type="hid" id="6769" />
        <Node type="hid" id="6825" />
        <Node type="hid" id="6852" />
        <Node type="hid" id="7172" />
        <Node type="hid" id="7184" />
        <Node type="hid" id="7294" />
        <Node type="hid" id="7329" />
        <Node type="hid" id="7432" />
        <Node type="hid" id="7579" />
        <Node type="hid" id="7734" />
        <Node type="hid" id="7773" />
        <Node type="hid" id="7808" />
        <Node type="hid" id="7827" />
        <Node type="hid" id="7878" />
        <Node type="hid" id="7981" />
        <Node type="hid" id="8040" />
        <Node type="hid" id="8172" />
        <Node type="hid" id="8321" />
        <Node type="hid" id="8437" />
        <Node type="hid" id="8666" />
        <Node type="hid" id="8880" />
        <Node type="hid" id="9026" />
        <Node type="hid" id="9330" />
        <Node type="hid" id="9474" />
        <Node type="hid" id="9591" />
        <Node type="hid" id="9691" />
        <Node type="hid" id="9717" />
        <Node type="hid" id="9745" />
        <Node type="hid" id="9857" />
        <Node type="hid" id="9890" />
        <Node type="hid" id="9939" />
        <Node type="hid" id="10007" />
        <Node type="hid" id="10207" />
        <Node type="hid" id="10240" />
        <Node type="hid" id="10368" />
      </Nodes>
      <Connections>
        <Con id="44" src="1" tgt="8" wght="2.4496297752099694" />
        <Con id="46" src="5" tgt="9" wght="-0.45855789494699123" />
        <Con id="51" src="2" tgt="8" wght="-1.1254753962794761" />
        <Con id="56" src="5" tgt="7" wght="-1.475521902923276" />
        <Con id="65" src="0" tgt="6" wght="-2.7296454989183245" />
        <Con id="82" src="4" tgt="9" wght="0.3516244564694071" />
        <Con id="83" src="4" tgt="8" wght="-4.4888863026887007" />
        <Con id="84" src="0" tgt="7" wght="1.5138752938944915" />
        <Con id="85" src="1" tgt="9" wght="-3.6564315315516329" />
        <Con id="86" src="1" tgt="7" wght="-4.7441220801701878" />
        <Con id="91" src="0" tgt="9" wght="-0.6195045867047192" />
        <Con id="92" src="3" tgt="6" wght="-3.3236259829633386" />
        <Con id="96" src="4" tgt="6" wght="0.28666519572228666" />
        <Con id="100" src="2" tgt="9" wght="4.5262950021939341" />
        <Con id="108" src="5" tgt="107" wght="-1.6639138793202073" />
        <Con id="109" src="107" tgt="6" wght="-1.5911541637618876" />
        <Con id="110" src="5" tgt="6" wght="1.6789318758483311" />
        <Con id="111" src="3" tgt="10" wght="0.57824982312612438" />
        <Con id="113" src="107" tgt="10" wght="5" />
        <Con id="114" src="1" tgt="10" wght="3.0164318201833109" />
        <Con id="115" src="5" tgt="10" wght="-3.1228208719660659" />
        <Con id="135" src="4" tgt="10" wght="-4.3110804769222586" />
        <Con id="136" src="0" tgt="8" wght="2.6837686930429374" />
        <Con id="140" src="0" tgt="10" wght="5" />
        <Con id="141" src="107" tgt="7" wght="-3.045320786511811" />
        <Con id="165" src="163" tgt="7" wght="-5" />
        <Con id="170" src="3" tgt="107" wght="2.96282704401461" />
        <Con id="171" src="4" tgt="107" wght="4.5631512403426591" />
        <Con id="172" src="0" tgt="107" wght="-0.55089967638190851" />
        <Con id="177" src="163" tgt="9" wght="-0.36027226513297717" />
        <Con id="178" src="163" tgt="10" wght="-3.3351053391891807" />
        <Con id="182" src="163" tgt="6" wght="-3.3148045656920506" />
        <Con id="189" src="3" tgt="163" wght="2.5571404156500832" />
        <Con id="190" src="1" tgt="107" wght="4.9713960365562135" />
        <Con id="192" src="163" tgt="107" wght="-3.3088458019462639" />
        <Con id="202" src="163" tgt="8" wght="-0.84714293615796776" />
        <Con id="239" src="237" tgt="163" wght="-1.5694441460829205" />
        <Con id="240" src="237" tgt="7" wght="-2.7207498427698482" />
        <Con id="241" src="237" tgt="107" wght="-5" />
        <Con id="243" src="0" tgt="163" wght="-2.5262541911464456" />
        <Con id="248" src="2" tgt="163" wght="-0.44349458004057718" />
        <Con id="258" src="237" tgt="9" wght="-0.71243336451613992" />
        <Con id="260" src="237" tgt="8" wght="-2.1833899466035653" />
        <Con id="310" src="304" tgt="9" wght="-1.69695207116704" />
        <Con id="311" src="4" tgt="237" wght="0.41221742506592035" />
        <Con id="315" src="304" tgt="7" wght="-4.9955497321013755" />
        <Con id="316" src="5" tgt="237" wght="4.9936429784096816" />
        <Con id="317" src="304" tgt="6" wght="-3.7651620466606248" />
        <Con id="321" src="1" tgt="237" wght="3.1969036506836037" />
        <Con id="326" src="163" tgt="304" wght="-0.2603680954433345" />
        <Con id="340" src="3" tgt="237" wght="-4.6450322586903647" />
        <Con id="351" src="2" tgt="350" wght="4.3715446191195726" />
        <Con id="354" src="163" tgt="350" wght="-3.5972703118567719" />
        <Con id="359" src="350" tgt="10" wght="-2.8874095776601409" />
        <Con id="362" src="350" tgt="304" wght="-0.13564623415959032" />
        <Con id="366" src="350" tgt="9" wght="-2.8024493436110882" />
        <Con id="374" src="5" tgt="304" wght="-3.4586972762342207" />
        <Con id="377" src="1" tgt="376" wght="-0.068635605275630951" />
        <Con id="379" src="1" tgt="304" wght="-3.9291814058720878" />
        <Con id="380" src="376" tgt="237" wght="-3.2396494831268545" />
        <Con id="384" src="5" tgt="350" wght="-3.6732762011915758" />
        <Con id="385" src="4" tgt="304" wght="-2.1625200168120413" />
        <Con id="386" src="0" tgt="350" wght="1.4871064759658406" />
        <Con id="390" src="388" tgt="9" wght="-2.4940005172194963" />
        <Con id="396" src="2" tgt="376" wght="2.3454607410936243" />
        <Con id="399" src="388" tgt="237" wght="-4.6407282422196126" />
        <Con id="401" src="388" tgt="7" wght="1.9954392423957563" />
        <Con id="407" src="376" tgt="8" wght="-0.84443358452713824" />
        <Con id="421" src="388" tgt="6" wght="-4.9800274647340927" />
        <Con id="425" src="388" tgt="107" wght="-3.2745935695417545" />
        <Con id="427" src="5" tgt="376" wght="4.985142069310486" />
        <Con id="430" src="428" tgt="350" wght="-4.2897404517290063" />
        <Con id="432" src="428" tgt="9" wght="0.77879765083793207" />
        <Con id="435" src="4" tgt="434" wght="4.0206142067119535" />
        <Con id="443" src="428" tgt="8" wght="1.4618950718582489" />
        <Con id="444" src="376" tgt="428" wght="-1.7110245763079206" />
        <Con id="445" src="434" tgt="107" wght="-0.16629825010922519" />
        <Con id="452" src="434" tgt="237" wght="-1.0782550603044785" />
        <Con id="456" src="376" tgt="10" wght="0.70013418106605707" />
        <Con id="460" src="428" tgt="7" wght="4.1077310979921169" />
        <Con id="461" src="428" tgt="6" wght="2.2801182331822987" />
        <Con id="462" src="428" tgt="304" wght="-1.1271064456813973" />
        <Con id="464" src="388" tgt="350" wght="-5" />
        <Con id="465" src="3" tgt="388" wght="3.9329932566371548" />
        <Con id="466" src="434" tgt="428" wght="1.8014346482232213" />
        <Con id="469" src="428" tgt="107" wght="0.9999689872655122" />
        <Con id="485" src="3" tgt="428" wght="-1.2901706214324409" />
        <Con id="494" src="428" tgt="237" wght="3.9234394183116796" />
        <Con id="495" src="428" tgt="388" wght="-5" />
        <Con id="501" src="434" tgt="7" wght="4.9576898064566866" />
        <Con id="502" src="0" tgt="428" wght="1.4955185901412047" />
        <Con id="510" src="4" tgt="350" wght="1.2218638238446602" />
        <Con id="520" src="5" tgt="428" wght="3.4043507678771983" />
        <Con id="521" src="434" tgt="304" wght="-0.14949217105590606" />
        <Con id="536" src="428" tgt="163" wght="1.007343230471258" />
        <Con id="550" src="3" tgt="549" wght="-2.7559144382516068" />
        <Con id="551" src="549" tgt="388" wght="4.9751348578717858" />
        <Con id="555" src="549" tgt="304" wght="-3.5874711356484963" />
        <Con id="556" src="4" tgt="428" wght="4.4754054142149036" />
        <Con id="563" src="549" tgt="6" wght="0.23450746666640043" />
        <Con id="565" src="5" tgt="434" wght="-4.5376990455968942" />
        <Con id="566" src="549" tgt="434" wght="1.854056294984364" />
        <Con id="571" src="549" tgt="376" wght="2.3813389661944684" />
        <Con id="590" src="549" tgt="8" wght="2.5483317141048465" />
        <Con id="593" src="1" tgt="434" wght="-4.2188841387344409" />
        <Con id="597" src="549" tgt="7" wght="3.6619279422476083" />
        <Con id="598" src="549" tgt="163" wght="4.6204049247164711" />
        <Con id="605" src="549" tgt="107" wght="-2.3906084789573785" />
        <Con id="640" src="5" tgt="549" wght="-2.1845089731279019" />
        <Con id="643" src="641" tgt="388" wght="0.82532091894258186" />
        <Con id="645" src="637" tgt="7" wght="2.3105781969118198" />
        <Con id="646" src="3" tgt="637" wght="4.3184658211779015" />
        <Con id="647" src="637" tgt="6" wght="-2.5906742543416885" />
        <Con id="649" src="376" tgt="637" wght="-0.072732897428030713" />
        <Con id="650" src="641" tgt="8" wght="-1.096275894703175" />
        <Con id="665" src="434" tgt="637" wght="5" />
        <Con id="669" src="641" tgt="237" wght="5" />
        <Con id="674" src="641" tgt="7" wght="-0.82125027920884719" />
        <Con id="675" src="641" tgt="6" wght="3.1945178898597471" />
        <Con id="676" src="434" tgt="641" wght="-4.2687881782057" />
        <Con id="686" src="684" tgt="9" wght="-3.0854582242658637" />
        <Con id="691" src="5" tgt="637" wght="-5" />
        <Con id="699" src="684" tgt="6" wght="1.6615479324746403" />
        <Con id="712" src="684" tgt="641" wght="-5" />
        <Con id="713" src="2" tgt="637" wght="-1.8508082038422224" />
        <Con id="722" src="684" tgt="428" wght="0.6054426236302255" />
        <Con id="735" src="1" tgt="641" wght="-2.819201116389451" />
        <Con id="738" src="388" tgt="737" wght="2.4638725420590575" />
        <Con id="739" src="737" tgt="7" wght="4.7009581478444566" />
        <Con id="750" src="4" tgt="684" wght="-4.9976673244707053" />
        <Con id="753" src="641" tgt="163" wght="-5" />
        <Con id="757" src="684" tgt="107" wght="-0.41930479692370837" />
        <Con id="758" src="549" tgt="641" wght="-4.9074251671793565" />
        <Con id="759" src="350" tgt="637" wght="3.3934142125035622" />
        <Con id="764" src="637" tgt="9" wght="-4.8178592942718872" />
        <Con id="766" src="641" tgt="10" wght="-4.3018662090026" />
        <Con id="767" src="1" tgt="549" wght="-1.6574838752376237" />
        <Con id="783" src="774" tgt="7" wght="-2.1373642224651914" />
        <Con id="784" src="684" tgt="549" wght="2.5739220399995157" />
        <Con id="795" src="774" tgt="10" wght="1.0409657284617424" />
        <Con id="796" src="684" tgt="774" wght="0.88478413098561348" />
        <Con id="798" src="774" tgt="737" wght="-1.7315375916863465" />
        <Con id="800" src="774" tgt="304" wght="-0.59008360317075925" />
        <Con id="827" src="774" tgt="637" wght="2.950854797199876" />
        <Con id="831" src="2" tgt="684" wght="3.438391044228124" />
        <Con id="832" src="641" tgt="737" wght="3.9101978979306731" />
        <Con id="833" src="774" tgt="107" wght="-3.8933442724290983" />
        <Con id="834" src="5" tgt="684" wght="0.7781134294194304" />
        <Con id="835" src="774" tgt="350" wght="-0.1163140818499943" />
        <Con id="846" src="684" tgt="637" wght="2.5632389469840282" />
        <Con id="848" src="774" tgt="6" wght="0.59700788317897069" />
        <Con id="857" src="2" tgt="856" wght="-1.030132657852912" />
        <Con id="858" src="856" tgt="376" wght="3.154652355167737" />
        <Con id="859" src="0" tgt="774" wght="-4.4779722504245845" />
        <Con id="865" src="856" tgt="737" wght="4.1599380641016577" />
        <Con id="867" src="684" tgt="10" wght="-0.944482098236458" />
        <Con id="869" src="856" tgt="428" wght="-2.7918159206891433" />
        <Con id="870" src="641" tgt="637" wght="3.1700381900353878" />
        <Con id="871" src="856" tgt="684" wght="-0.20035827142637674" />
        <Con id="873" src="388" tgt="872" wght="4.7850087104476522" />
        <Con id="878" src="2" tgt="549" wght="-4.1152310366676668" />
        <Con id="880" src="684" tgt="388" wght="0.33973711233665932" />
        <Con id="883" src="856" tgt="434" wght="-5" />
        <Con id="884" src="637" tgt="8" wght="1.3689880020760052" />
        <Con id="888" src="0" tgt="856" wght="-0.49334199523402228" />
        <Con id="893" src="0" tgt="892" wght="-1.8606667099562877" />
        <Con id="894" src="892" tgt="8" wght="-0.30012364756799786" />
        <Con id="896" src="856" tgt="304" wght="2.1259555648614121" />
        <Con id="899" src="892" tgt="872" wght="-0.84830159811593775" />
        <Con id="900" src="856" tgt="350" wght="5" />
        <Con id="901" src="3" tgt="774" wght="-1.2069124183413427" />
        <Con id="912" src="641" tgt="774" wght="-4.04768896000546" />
        <Con id="913" src="2" tgt="737" wght="3.7384899192345733" />
        <Con id="915" src="684" tgt="434" wght="-0.7061802468462689" />
        <Con id="920" src="856" tgt="641" wght="-5" />
        <Con id="931" src="908" tgt="10" wght="0.62002127206463076" />
        <Con id="932" src="856" tgt="908" wght="3.7175213493056831" />
        <Con id="936" src="872" tgt="637" wght="2.0002883905544877" />
        <Con id="937" src="908" tgt="428" wght="3.6818506896809544" />
        <Con id="938" src="1" tgt="737" wght="-0.96221439834667144" />
        <Con id="941" src="376" tgt="737" wght="2.8758076588921577" />
        <Con id="942" src="892" tgt="388" wght="-4.1883125076911618" />
        <Con id="947" src="0" tgt="872" wght="-0.56116125465167532" />
        <Con id="948" src="892" tgt="428" wght="2.0230881962925196" />
        <Con id="949" src="872" tgt="6" wght="2.3093038145452738" />
        <Con id="956" src="428" tgt="872" wght="-1.3252273425624224" />
        <Con id="962" src="774" tgt="163" wght="4.057075903232592" />
        <Con id="963" src="908" tgt="6" wght="2.7874938199942019" />
        <Con id="965" src="908" tgt="9" wght="-0.48842620234959822" />
        <Con id="968" src="966" tgt="6" wght="-4.9776810561544753" />
        <Con id="969" src="3" tgt="856" wght="1.0311425315507361" />
        <Con id="972" src="966" tgt="872" wght="5" />
        <Con id="983" src="376" tgt="872" wght="-3.8018420990556479" />
        <Con id="986" src="3" tgt="892" wght="3.524437071619547" />
        <Con id="988" src="908" tgt="237" wght="2.3307590240415319" />
        <Con id="993" src="892" tgt="304" wght="0.70986575804503937" />
        <Con id="1000" src="998" tgt="163" wght="-3.6426346104891278" />
        <Con id="1003" src="1" tgt="966" wght="2.5857201020931164" />
        <Con id="1004" src="5" tgt="872" wght="3.808885331347577" />
        <Con id="1006" src="684" tgt="892" wght="-1.9216407059431198" />
        <Con id="1012" src="908" tgt="998" wght="0.84423279206575164" />
        <Con id="1019" src="434" tgt="872" wght="3.527191764529499" />
        <Con id="1023" src="684" tgt="966" wght="-3.6619349407251596" />
        <Con id="1024" src="3" tgt="966" wght="-4.6261527185089246" />
        <Con id="1029" src="2" tgt="908" wght="-3.0981154813800931" />
        <Con id="1030" src="428" tgt="966" wght="1.88204949721694" />
        <Con id="1036" src="892" tgt="163" wght="0.1722107778961702" />
        <Con id="1037" src="376" tgt="966" wght="4.45843868502866" />
        <Con id="1040" src="1038" tgt="7" wght="0.90059158192690691" />
        <Con id="1043" src="1038" tgt="637" wght="4.1337929351064853" />
        <Con id="1053" src="774" tgt="1038" wght="3.7287511448449218" />
        <Con id="1063" src="549" tgt="1038" wght="0.97928370909382845" />
        <Con id="1065" src="4" tgt="774" wght="-5" />
        <Con id="1066" src="1038" tgt="10" wght="-3.9529519754558211" />
        <Con id="1091" src="774" tgt="966" wght="-4.98051746592455" />
        <Con id="1092" src="1" tgt="998" wght="-1.5091952341231554" />
        <Con id="1093" src="4" tgt="892" wght="-5" />
        <Con id="1098" src="872" tgt="998" wght="-0.99737571644274858" />
        <Con id="1100" src="966" tgt="10" wght="4.7447894681688005" />
        <Con id="1102" src="684" tgt="998" wght="2.2251645374352162" />
        <Con id="1119" src="434" tgt="892" wght="-4.5381216073467741" />
        <Con id="1120" src="1038" tgt="350" wght="-3.5188251427793111" />
        <Con id="1121" src="892" tgt="966" wght="1.595499012619257" />
        <Con id="1125" src="4" tgt="998" wght="0.039016947175939065" />
        <Con id="1127" src="1" tgt="856" wght="1.435084441451449" />
        <Con id="1133" src="966" tgt="350" wght="4.9903432589428895" />
        <Con id="1134" src="1038" tgt="737" wght="-3.8496937487567453" />
        <Con id="1140" src="908" tgt="350" wght="-0.535570227101875" />
        <Con id="1141" src="908" tgt="7" wght="-2.7365564285374653" />
        <Con id="1142" src="892" tgt="774" wght="2.6894144003243476" />
        <Con id="1144" src="1038" tgt="966" wght="4.9976113375696407" />
        <Con id="1148" src="998" tgt="8" wght="2.5914695604104141" />
        <Con id="1149" src="1038" tgt="388" wght="-0.10283724912563946" />
        <Con id="1150" src="856" tgt="998" wght="-5" />
        <Con id="1157" src="1" tgt="892" wght="2.9911273407435979" />
        <Con id="1165" src="998" tgt="637" wght="-1.3151697391596231" />
        <Con id="1168" src="892" tgt="107" wght="3.5774689009211507" />
        <Con id="1169" src="4" tgt="872" wght="1.0066731898134416" />
        <Con id="1177" src="1175" tgt="163" wght="4.3661492049738939" />
        <Con id="1196" src="641" tgt="872" wght="2.79374435018522" />
        <Con id="1201" src="1038" tgt="237" wght="-0.25513981506428923" />
        <Con id="1203" src="892" tgt="1175" wght="1.5472937273018095" />
        <Con id="1224" src="2" tgt="1038" wght="-1.8968036532397914" />
        <Con id="1226" src="1175" tgt="376" wght="-4.0094324340931511" />
        <Con id="1246" src="856" tgt="1038" wght="-3.7525319161101214" />
        <Con id="1269" src="998" tgt="10" wght="3.0899027944253934" />
        <Con id="1302" src="1175" tgt="998" wght="3.7696156788743895" />
        <Con id="1321" src="998" tgt="737" wght="-0.22273911050677983" />
        <Con id="1345" src="434" tgt="966" wght="-3.5696052973266883" />
        <Con id="1347" src="641" tgt="376" wght="-1.3975753279743142" />
        <Con id="1354" src="237" tgt="998" wght="-2.5233162232056636" />
        <Con id="1362" src="1" tgt="1038" wght="-2.2527147349422787" />
        <Con id="1367" src="892" tgt="1366" wght="4.402200814197351" />
        <Con id="1368" src="1366" tgt="1175" wght="-0.86493888099078242" />
        <Con id="1387" src="856" tgt="892" wght="-0.35879380422200008" />
        <Con id="1389" src="1366" tgt="872" wght="-3.2501586066400665" />
        <Con id="1390" src="774" tgt="998" wght="-0.25047444833592092" />
        <Con id="1393" src="1366" tgt="966" wght="-5" />
        <Con id="1426" src="1424" tgt="8" wght="-0.13165220136986136" />
        <Con id="1439" src="684" tgt="1424" wght="4.07983390096532" />
        <Con id="1442" src="1366" tgt="107" wght="4.9150933901779021" />
        <Con id="1443" src="163" tgt="1424" wght="-3.8785345359846417" />
        <Con id="1446" src="856" tgt="637" wght="3.0819447859764186" />
        <Con id="1448" src="966" tgt="304" wght="4.1770063247776221" />
        <Con id="1458" src="350" tgt="1424" wght="-0.75045538318499427" />
        <Con id="1466" src="1366" tgt="9" wght="3.4531407542746706" />
        <Con id="1468" src="5" tgt="1366" wght="-0.85451890248805285" />
        <Con id="1469" src="2" tgt="1366" wght="1.7374943787025972" />
        <Con id="1473" src="684" tgt="1366" wght="0.63819011499291967" />
        <Con id="1484" src="856" tgt="1424" wght="-0.33530161688053384" />
        <Con id="1485" src="1424" tgt="7" wght="2.393243509299706" />
        <Con id="1499" src="1366" tgt="7" wght="-2.076945058389696" />
        <Con id="1505" src="637" tgt="1424" wght="1.4604820526325277" />
        <Con id="1515" src="1" tgt="1175" wght="1.3608700924770065" />
        <Con id="1522" src="1366" tgt="8" wght="0.98618946075442337" />
        <Con id="1527" src="3" tgt="1175" wght="5" />
        <Con id="1528" src="998" tgt="1424" wght="-5" />
        <Con id="1536" src="1366" tgt="350" wght="2.3269506569382461" />
        <Con id="1537" src="1366" tgt="774" wght="-0.99604615905033544" />
        <Con id="1556" src="856" tgt="549" wght="2.0978904588398786" />
        <Con id="1573" src="1366" tgt="428" wght="0.35916344350660556" />
        <Con id="1596" src="2" tgt="1595" wght="-0.3228290568468658" />
        <Con id="1597" src="1595" tgt="107" wght="-4.0083731932074169" />
        <Con id="1601" src="237" tgt="872" wght="1.8669076577473966" />
        <Con id="1602" src="549" tgt="1595" wght="2.7665483261834471" />
        <Con id="1604" src="684" tgt="1595" wght="1.5892586470250309" />
        <Con id="1611" src="4" tgt="1424" wght="-3.3285646621333567" />
        <Con id="1615" src="107" tgt="1424" wght="-5" />
        <Con id="1616" src="1424" tgt="9" wght="0.25971927403555117" />
        <Con id="1629" src="908" tgt="1595" wght="5" />
        <Con id="1650" src="641" tgt="428" wght="-3.0896378953082668" />
        <Con id="1654" src="1652" tgt="9" wght="-5" />
        <Con id="1668" src="1652" tgt="107" wght="0.3760541298454711" />
        <Con id="1669" src="1652" tgt="637" wght="3.4191238257058041" />
        <Con id="1672" src="1670" tgt="10" wght="-2.0269511101586346" />
        <Con id="1673" src="908" tgt="1670" wght="-4.9858710248050393" />
        <Con id="1681" src="872" tgt="1424" wght="-0.14673896496144023" />
        <Con id="1689" src="1687" tgt="304" wght="4.29288856821471" />
        <Con id="1705" src="737" tgt="1670" wght="-2.1917444331254967" />
        <Con id="1719" src="1652" tgt="1687" wght="4.9859763573896148" />
        <Con id="1722" src="1670" tgt="1424" wght="-2.9652162335599792" />
        <Con id="1723" src="774" tgt="1424" wght="-2.4053008412728953" />
        <Con id="1725" src="237" tgt="1724" wght="3.1500929949968044" />
        <Con id="1726" src="1724" tgt="637" wght="4.97808937785715" />
        <Con id="1727" src="1724" tgt="7" wght="4.6426365150327884" />
        <Con id="1731" src="1175" tgt="872" wght="2.8423711926715551" />
        <Con id="1734" src="637" tgt="1670" wght="-4.2200903510918417" />
        <Con id="1738" src="1724" tgt="1424" wght="1.480691224865212" />
        <Con id="1752" src="1652" tgt="1724" wght="4.9876145047496916" />
        <Con id="1755" src="774" tgt="1670" wght="0.2815649615174019" />
        <Con id="1760" src="1724" tgt="1687" wght="-4.2441577549247906" />
        <Con id="1762" src="1595" tgt="1038" wght="-2.9721409513485577" />
        <Con id="1764" src="1595" tgt="163" wght="0.15631228670862785" />
        <Con id="1765" src="641" tgt="1687" wght="-5" />
        <Con id="1768" src="1175" tgt="1687" wght="1.210940137853344" />
        <Con id="1772" src="549" tgt="1724" wght="4.1271154749087193" />
        <Con id="1773" src="376" tgt="1687" wght="0.3327006339369849" />
        <Con id="1782" src="428" tgt="1781" wght="4.974436685143238" />
        <Con id="1783" src="1781" tgt="1038" wght="-1.0203049397779331" />
        <Con id="1788" src="388" tgt="1670" wght="1.6884224110511117" />
        <Con id="1789" src="5" tgt="1424" wght="-5" />
        <Con id="1791" src="872" tgt="1670" wght="-0.51795892858049719" />
        <Con id="1797" src="5" tgt="1038" wght="1.1118120139502379" />
        <Con id="1801" src="1670" tgt="8" wght="4.0536645510327221" />
        <Con id="1813" src="3" tgt="1670" wght="2.2477903585300552" />
        <Con id="1822" src="1781" tgt="1687" wght="1.5207629045977218" />
        <Con id="1826" src="1724" tgt="6" wght="-4.84586386202412" />
        <Con id="1837" src="1670" tgt="7" wght="0.0654002572167396" />
        <Con id="1840" src="737" tgt="1839" wght="0.79297530531467908" />
        <Con id="1841" src="1839" tgt="9" wght="-0.92562188118687738" />
        <Con id="1842" src="434" tgt="1038" wght="3.6151821977181586" />
        <Con id="1847" src="1781" tgt="637" wght="-0.67285988406230168" />
        <Con id="1851" src="856" tgt="1850" wght="2.0792102406680089" />
        <Con id="1858" src="1850" tgt="376" wght="-0.51844269502907991" />
        <Con id="1874" src="684" tgt="1670" wght="5" />
        <Con id="1880" src="856" tgt="1781" wght="0.81341507083716125" />
        <Con id="1892" src="1839" tgt="1424" wght="-4.1071852426798436" />
        <Con id="1895" src="1175" tgt="1724" wght="-4.0355788143851949" />
        <Con id="1912" src="1652" tgt="350" wght="3.3875640756137639" />
        <Con id="1914" src="237" tgt="1913" wght="-5" />
        <Con id="1915" src="1913" tgt="350" wght="4.9874347313666911" />
        <Con id="1923" src="428" tgt="1724" wght="1.9399744752043777" />
        <Con id="1928" src="549" tgt="1652" wght="-0.65365299130089138" />
        <Con id="1937" src="1850" tgt="428" wght="-4.2044761363223859" />
        <Con id="1939" src="684" tgt="1781" wght="3.9119810794721417" />
        <Con id="1962" src="549" tgt="1850" wght="0.44494732100342577" />
        <Con id="1964" src="1913" tgt="637" wght="-3.0439778540798161" />
        <Con id="1976" src="1913" tgt="1652" wght="-5" />
        <Con id="1977" src="684" tgt="1839" wght="-2.7782926637713081" />
        <Con id="1980" src="1366" tgt="1979" wght="-3.1980024474752082" />
        <Con id="1981" src="1979" tgt="304" wght="-4.6119564688066719" />
        <Con id="1983" src="1850" tgt="237" wght="-1.7701387514758897" />
        <Con id="1990" src="1979" tgt="1781" wght="-3.3039848266991378" />
        <Con id="2003" src="1" tgt="1595" wght="-0.1832709435158667" />
        <Con id="2013" src="4" tgt="1724" wght="-1.7602532663967199" />
        <Con id="2018" src="350" tgt="1839" wght="-3.618092354723407" />
        <Con id="2029" src="1366" tgt="388" wght="5" />
        <Con id="2032" src="1595" tgt="434" wght="1.7251165020317787" />
        <Con id="2040" src="1687" tgt="998" wght="4.9844945001491734" />
        <Con id="2046" src="1979" tgt="9" wght="-4.3943528217890853" />
        <Con id="2062" src="0" tgt="1839" wght="3.7729706671017618" />
        <Con id="2068" src="1979" tgt="966" wght="-2.1615828009057303" />
        <Con id="2082" src="1038" tgt="1670" wght="0.31657759729310087" />
        <Con id="2085" src="966" tgt="1670" wght="-0.95268965744844325" />
        <Con id="2090" src="1839" tgt="637" wght="-3.1839136384443933" />
        <Con id="2095" src="1979" tgt="376" wght="-0.23829546590453843" />
        <Con id="2107" src="1175" tgt="1913" wght="1.6036119283239836" />
        <Con id="2114" src="1850" tgt="1366" wght="-4.7750697135218649" />
        <Con id="2115" src="641" tgt="1979" wght="5" />
        <Con id="2120" src="376" tgt="1839" wght="3.4584757049991932" />
        <Con id="2123" src="892" tgt="1979" wght="-0.706867206033999" />
        <Con id="2124" src="2" tgt="1687" wght="2.608127888011591" />
        <Con id="2149" src="1595" tgt="2148" wght="3.8054109218320784" />
        <Con id="2150" src="2148" tgt="637" wght="0.71927918941524249" />
        <Con id="2162" src="2148" tgt="737" wght="-4.8439490834592869" />
        <Con id="2171" src="1366" tgt="2170" wght="-1.0888292314990071" />
        <Con id="2172" src="2170" tgt="637" wght="-5" />
        <Con id="2177" src="2148" tgt="163" wght="-3.2002769834920208" />
        <Con id="2192" src="1850" tgt="774" wght="-3.5099793577597507" />
        <Con id="2202" src="2170" tgt="237" wght="1.9136788778950111" />
        <Con id="2203" src="2148" tgt="774" wght="-1.3750137725687053" />
        <Con id="2217" src="908" tgt="1724" wght="-1.0648955889191791" />
        <Con id="2218" src="684" tgt="2148" wght="-5" />
        <Con id="2224" src="3" tgt="1913" wght="2.6364133810331105" />
        <Con id="2225" src="908" tgt="434" wght="1.3426096192332377" />
        <Con id="2230" src="2148" tgt="1724" wght="-0.40103381555789774" />
        <Con id="2235" src="1175" tgt="1839" wght="1.8914465307500576" />
        <Con id="2238" src="1913" tgt="1424" wght="4.0851968237165668" />
        <Con id="2239" src="1979" tgt="2148" wght="3.65359166780758" />
        <Con id="2244" src="892" tgt="1724" wght="1.9421076465908735" />
        <Con id="2255" src="1850" tgt="8" wght="-4.7036852631430266" />
        <Con id="2256" src="1724" tgt="737" wght="-5" />
        <Con id="2259" src="1595" tgt="1979" wght="0.88774899406311236" />
        <Con id="2289" src="1850" tgt="163" wght="3.0920282493617339" />
        <Con id="2293" src="2170" tgt="774" wght="-0.32346338630455018" />
        <Con id="2307" src="1175" tgt="1781" wght="4.0192761049067744" />
        <Con id="2322" src="237" tgt="1424" wght="-4.3405385400707992" />
        <Con id="2331" src="2170" tgt="428" wght="-0.76607553874062484" />
        <Con id="2335" src="684" tgt="1652" wght="5" />
        <Con id="2356" src="1850" tgt="1670" wght="1.5856645293007001" />
        <Con id="2362" src="892" tgt="1670" wght="-1.9629021035507321" />
        <Con id="2370" src="1" tgt="2369" wght="-3.9668041226593855" />
        <Con id="2371" src="2369" tgt="1839" wght="-4.0401616558750817" />
        <Con id="2375" src="1850" tgt="2170" wght="-3.8653455057858328" />
        <Con id="2379" src="1850" tgt="2148" wght="-1.3652783239826571" />
        <Con id="2380" src="549" tgt="1979" wght="-1.3684958774236922" />
        <Con id="2382" src="434" tgt="1850" wght="3.2549202167115605" />
        <Con id="2387" src="2369" tgt="641" wght="-3.4542492066883268" />
        <Con id="2390" src="2388" tgt="966" wght="1.5073949701493159" />
        <Con id="2395" src="774" tgt="2394" wght="2.5256042191559391" />
        <Con id="2396" src="2394" tgt="388" wght="-1.9576466827363903" />
        <Con id="2419" src="2417" tgt="641" wght="-4.8373412046314659" />
        <Con id="2441" src="1595" tgt="2417" wght="2.8838211800033267" />
        <Con id="2447" src="3" tgt="1781" wght="1.9826041991104884" />
        <Con id="2452" src="2" tgt="2451" wght="2.3853234946727753" />
        <Con id="2453" src="2451" tgt="7" wght="-0.34865837372260333" />
        <Con id="2463" src="4" tgt="2462" wght="0.30282956548035145" />
        <Con id="2470" src="641" tgt="2170" wght="3.6152361894928386" />
        <Con id="2471" src="1839" tgt="1670" wght="0.81824804340433177" />
        <Con id="2476" src="376" tgt="1724" wght="0.63210382696995" />
        <Con id="2478" src="2369" tgt="2388" wght="-1.2400077467435886" />
        <Con id="2479" src="2417" tgt="1913" wght="-0.84588877151716824" />
        <Con id="2483" src="856" tgt="2462" wght="-4.8248239774152806" />
        <Con id="2489" src="2369" tgt="637" wght="0.12304921289353143" />
        <Con id="2495" src="2369" tgt="1652" wght="1.1385036673076228" />
        <Con id="2496" src="2451" tgt="10" wght="1.6521981535941987" />
        <Con id="2501" src="2388" tgt="163" wght="-0.18615782793067776" />
        <Con id="2512" src="2417" tgt="6" wght="-0.94909613131270409" />
        <Con id="2515" src="2417" tgt="966" wght="-5" />
        <Con id="2516" src="2388" tgt="872" wght="2.84822860186711" />
        <Con id="2517" src="2388" tgt="2394" wght="3.3255526690297148" />
        <Con id="2536" src="2148" tgt="1781" wght="-4.8715972374401568" />
        <Con id="2549" src="388" tgt="2451" wght="-1.9165201187129197" />
        <Con id="2553" src="684" tgt="2462" wght="-3.8996617696652462" />
        <Con id="2556" src="641" tgt="2388" wght="4.31239579848341" />
        <Con id="2560" src="2170" tgt="1038" wght="0.04993348781085" />
        <Con id="2562" src="1366" tgt="1724" wght="-1.2368611435999453" />
        <Con id="2568" src="966" tgt="2394" wght="-4.5056629558698251" />
        <Con id="2579" src="2170" tgt="376" wght="-1.1326920595444789" />
        <Con id="2583" src="2" tgt="2148" wght="-2.935727573788216" />
        <Con id="2584" src="2369" tgt="684" wght="0.021717653801852543" />
        <Con id="2590" src="2462" tgt="2148" wght="-4.96712566388716" />
        <Con id="2595" src="304" tgt="2594" wght="0.537035929345519" />
        <Con id="2596" src="2594" tgt="107" wght="-2.4866061569037434" />
        <Con id="2612" src="3" tgt="2611" wght="-4.6170404713977726" />
        <Con id="2613" src="2611" tgt="304" wght="2.1948591259169707" />
        <Con id="2622" src="4" tgt="2451" wght="-4.4522021939092777" />
        <Con id="2624" src="2462" tgt="2417" wght="3.1118941271151366" />
        <Con id="2626" src="2148" tgt="9" wght="1.1218735350673774" />
        <Con id="2630" src="872" tgt="2451" wght="2.9559257880911751" />
        <Con id="2631" src="1913" tgt="2594" wght="-1.5222891913204322" />
        <Con id="2644" src="774" tgt="2388" wght="4.4737157591381811" />
        <Con id="2654" src="2369" tgt="428" wght="3.4951791097503824" />
        <Con id="2661" src="5" tgt="2611" wght="-5" />
        <Con id="2688" src="1175" tgt="2388" wght="-0.29716131470736895" />
        <Con id="2689" src="2394" tgt="637" wght="-2.4372652033343911" />
        <Con id="2691" src="5" tgt="2594" wght="-0.44709375140609053" />
        <Con id="2692" src="2462" tgt="774" wght="3.4175367539588071" />
        <Con id="2695" src="2170" tgt="9" wght="5" />
        <Con id="2703" src="2641" tgt="376" wght="-2.569922914385828" />
        <Con id="2709" src="2641" tgt="1839" wght="-3.0912808086500907" />
        <Con id="2737" src="2641" tgt="2736" wght="4.6023595451716792" />
        <Con id="2738" src="2736" tgt="237" wght="-2.7244130832783595" />
        <Con id="2748" src="1724" tgt="10" wght="0.68833490438493" />
        <Con id="2749" src="2736" tgt="1670" wght="-2.7108613377979913" />
        <Con id="2759" src="2451" tgt="8" wght="-0.59464228866580626" />
        <Con id="2766" src="388" tgt="2611" wght="-5" />
        <Con id="2776" src="4" tgt="2369" wght="-3.2993740016889443" />
        <Con id="2791" src="2451" tgt="6" wght="1.3934695328545288" />
        <Con id="2804" src="1652" tgt="998" wght="-1.1581622828826432" />
        <Con id="2811" src="1038" tgt="1839" wght="-2.4761643396134567" />
        <Con id="2816" src="2148" tgt="1175" wght="5" />
        <Con id="2828" src="908" tgt="2827" wght="-2.4304561722033311" />
        <Con id="2829" src="2827" tgt="376" wght="4.9940966539091329" />
        <Con id="2835" src="2462" tgt="2394" wght="2.1348901740280515" />
        <Con id="2836" src="2827" tgt="8" wght="1.3512251076538448" />
        <Con id="2845" src="1781" tgt="1839" wght="-3.3095505664390439" />
        <Con id="2860" src="304" tgt="2859" wght="-3.39814136719828" />
        <Con id="2861" src="2859" tgt="10" wght="-0.2703831858202595" />
        <Con id="2869" src="2462" tgt="7" wght="-4.6150946106662483" />
        <Con id="2872" src="856" tgt="2148" wght="-3.64409447246588" />
        <Con id="2873" src="388" tgt="1913" wght="2.0650673750787973" />
        <Con id="2894" src="1595" tgt="2827" wght="-1.58917055849184" />
        <Con id="2902" src="1781" tgt="2611" wght="0.870532004038726" />
        <Con id="2907" src="2611" tgt="1839" wght="-3.5412916280264408" />
        <Con id="2910" src="549" tgt="2736" wght="2.0944030721311124" />
        <Con id="2920" src="2388" tgt="304" wght="4.4633456544526018" />
        <Con id="2935" src="2827" tgt="304" wght="-4.8229285151424772" />
        <Con id="2937" src="856" tgt="1724" wght="2.7038789374077221" />
        <Con id="2938" src="0" tgt="2462" wght="-5" />
        <Con id="2939" src="2736" tgt="304" wght="-5" />
        <Con id="2949" src="998" tgt="1670" wght="2.33437994213344" />
        <Con id="2951" src="376" tgt="2950" wght="-1.3533278153542669" />
        <Con id="2952" src="2950" tgt="1652" wght="-0.800213581751632" />
        <Con id="2957" src="966" tgt="2859" wght="-2.4802662267262252" />
        <Con id="2958" src="2148" tgt="2641" wght="3.9847711069869134" />
        <Con id="2965" src="856" tgt="2170" wght="2.0856731902881953" />
        <Con id="2975" src="2611" tgt="107" wght="3.1375631336761591" />
        <Con id="2976" src="2641" tgt="1175" wght="-4.5296691906608428" />
        <Con id="2984" src="2369" tgt="2417" wght="-2.3743042176824751" />
        <Con id="2989" src="1724" tgt="2451" wght="0.37394866224446849" />
        <Con id="2998" src="2736" tgt="998" wght="-2.8045565081725758" />
        <Con id="3001" src="1038" tgt="2388" wght="-1.1276892709254753" />
        <Con id="3002" src="641" tgt="2736" wght="3.3050322435912989" />
        <Con id="3013" src="376" tgt="1913" wght="0.28372703115162951" />
        <Con id="3031" src="2736" tgt="107" wght="4.1965408991893209" />
        <Con id="3038" src="2736" tgt="350" wght="-1.7606706103429273" />
        <Con id="3063" src="2827" tgt="2417" wght="-0.2353895719125863" />
        <Con id="3067" src="1" tgt="2388" wght="3.1379661613684018" />
        <Con id="3069" src="2594" tgt="8" wght="5" />
        <Con id="3070" src="304" tgt="107" wght="1.1925250928811586" />
        <Con id="3072" src="5" tgt="2148" wght="-1.465648948361205" />
        <Con id="3073" src="1" tgt="1913" wght="0.94079054976057552" />
        <Con id="3077" src="388" tgt="1839" wght="4.9846670132769271" />
        <Con id="3080" src="2" tgt="3079" wght="2.0721576048263932" />
        <Con id="3081" src="3079" tgt="388" wght="-2.1224591187509474" />
        <Con id="3082" src="2950" tgt="872" wght="4.2598836166085752" />
        <Con id="3090" src="856" tgt="2641" wght="-3.0939034652519415" />
        <Con id="3091" src="856" tgt="2394" wght="1.4476095320039504" />
        <Con id="3097" src="3079" tgt="1652" wght="-0.64217313716104152" />
        <Con id="3100" src="434" tgt="2736" wght="1.157301514387209" />
        <Con id="3122" src="2" tgt="3121" wght="-4.1903812231031914" />
        <Con id="3123" src="3121" tgt="6" wght="4.32008152940851" />
        <Con id="3135" src="2827" tgt="2388" wght="-4.8869453529523392" />
        <Con id="3147" src="163" tgt="3121" wght="-4.15007690006684" />
        <Con id="3149" src="3121" tgt="350" wght="-0.16128257536795751" />
        <Con id="3150" src="1781" tgt="1652" wght="-4.9901966876934587" />
        <Con id="3161" src="637" tgt="3160" wght="-2.5856798059639829" />
        <Con id="3162" src="3160" tgt="107" wght="5" />
        <Con id="3179" src="5" tgt="1979" wght="2.6893307833320015" />
        <Con id="3189" src="684" tgt="1724" wght="-3.2313033041309991" />
        <Con id="3194" src="2859" tgt="8" wght="4.9793463266402913" />
        <Con id="3199" src="2641" tgt="8" wght="1.5431497390238247" />
        <Con id="3212" src="1979" tgt="3121" wght="4.2184641818739275" />
        <Con id="3216" src="856" tgt="3215" wght="-1.6294575253412453" />
        <Con id="3217" src="3215" tgt="1366" wght="-0.0033096112783689881" />
        <Con id="3224" src="2" tgt="1724" wght="0.55308313740897475" />
        <Con id="3226" src="1781" tgt="3121" wght="-1.3548962153113173" />
        <Con id="3232" src="388" tgt="3160" wght="0.81685353493699109" />
        <Con id="3245" src="1175" tgt="3244" wght="-5" />
        <Con id="3246" src="3244" tgt="966" wght="-1.627688050451533" />
        <Con id="3250" src="641" tgt="2611" wght="-0.02542165538755365" />
        <Con id="3253" src="5" tgt="3121" wght="-2.7712285443909748" />
        <Con id="3267" src="2859" tgt="7" wght="2.8321418286763169" />
        <Con id="3284" src="1366" tgt="2950" wght="-3.0302288887223296" />
        <Con id="3287" src="1038" tgt="3244" wght="1.1086485186170953" />
        <Con id="3290" src="5" tgt="3160" wght="-2.3032367787859744" />
        <Con id="3303" src="3079" tgt="6" wght="1.1258160477154926" />
        <Con id="3306" src="2827" tgt="2394" wght="-3.4583186885910346" />
        <Con id="3308" src="3121" tgt="304" wght="1.3237558166919496" />
        <Con id="3325" src="2148" tgt="2950" wght="-0.1756999408826232" />
        <Con id="3331" src="1038" tgt="2736" wght="0.21155658717334197" />
        <Con id="3342" src="1175" tgt="3160" wght="4.7132833767682314" />
        <Con id="3353" src="2170" tgt="3121" wght="-4.2349929943651032" />
        <Con id="3373" src="908" tgt="3372" wght="-0.47271669257771332" />
        <Con id="3374" src="3372" tgt="350" wght="-1.1301641162524709" />
        <Con id="3386" src="0" tgt="2859" wght="0.76940296500476146" />
        <Con id="3395" src="3160" tgt="2451" wght="2.6644643116453803" />
        <Con id="3398" src="1" tgt="3215" wght="-4.9500277463435109" />
        <Con id="3399" src="2950" tgt="9" wght="-0.1777934401804844" />
        <Con id="3403" src="2" tgt="3402" wght="0.684468181774446" />
        <Con id="3404" src="3402" tgt="774" wght="-4.275006600700678" />
        <Con id="3405" src="2369" tgt="6" wght="-3.1819652828675915" />
        <Con id="3408" src="428" tgt="2736" wght="-0.89227397844306877" />
        <Con id="3411" src="2827" tgt="3160" wght="2.1957122440119141" />
        <Con id="3419" src="3215" tgt="304" wght="4.0481567763810986" />
        <Con id="3422" src="2170" tgt="2388" wght="-4.4342817386971607" />
        <Con id="3431" src="3079" tgt="1670" wght="-2.55583876488634" />
        <Con id="3441" src="2950" tgt="1424" wght="-1.0004401493996795" />
        <Con id="3447" src="856" tgt="2859" wght="0.36538071279712575" />
        <Con id="3452" src="2827" tgt="2148" wght="0.34946497350888256" />
        <Con id="3455" src="2388" tgt="3454" wght="-1.8669736258253107" />
        <Con id="3456" src="3454" tgt="737" wght="-2.4448662298466473" />
        <Con id="3461" src="1724" tgt="3121" wght="4.4225248989656878" />
        <Con id="3466" src="0" tgt="1670" wght="-3.2709922349623368" />
        <Con id="3467" src="3454" tgt="1913" wght="-0.96539814490824938" />
        <Con id="3475" src="2641" tgt="350" wght="2.8722667889135831" />
        <Con id="3477" src="2641" tgt="163" wght="0.57119817982236176" />
        <Con id="3479" src="2827" tgt="107" wght="-2.0486695562148265" />
        <Con id="3482" src="3079" tgt="3244" wght="-0.77173145922612818" />
        <Con id="3485" src="856" tgt="2611" wght="0.53486308548599482" />
        <Con id="3494" src="2417" tgt="1979" wght="4.2288415815028042" />
        <Con id="3513" src="774" tgt="2611" wght="-2.7331311905625064" />
        <Con id="3545" src="3372" tgt="1652" wght="4.8031644488605112" />
        <Con id="3547" src="2462" tgt="1781" wght="-3.3361167532097467" />
        <Con id="3550" src="1595" tgt="3454" wght="-4.9989048527297939" />
        <Con id="3557" src="3079" tgt="2369" wght="-5" />
        <Con id="3564" src="2417" tgt="9" wght="-1.385162690010254" />
        <Con id="3569" src="549" tgt="3160" wght="-1.8554999119580473" />
        <Con id="3593" src="3079" tgt="2394" wght="-2.1046500694490167" />
        <Con id="3596" src="1175" tgt="3595" wght="4.3827333154380934" />
        <Con id="3597" src="3595" tgt="350" wght="-4.3303075605308967" />
        <Con id="3605" src="2641" tgt="428" wght="3.4536215397683749" />
        <Con id="3619" src="3079" tgt="641" wght="2.7107031839585249" />
        <Con id="3626" src="2417" tgt="3160" wght="3.1968359188098767" />
        <Con id="3628" src="637" tgt="2451" wght="-0.43484867906405139" />
        <Con id="3632" src="3630" tgt="8" wght="4.34730319952446" />
        <Con id="3642" src="2611" tgt="237" wght="-2.176725800941341" />
        <Con id="3643" src="2388" tgt="237" wght="3.23682151327515" />
        <Con id="3665" src="3595" tgt="3630" wght="-2.7431288791622004" />
        <Con id="3666" src="3402" tgt="1175" wght="-2.087393769013993" />
        <Con id="3668" src="684" tgt="3667" wght="3.4848499672281918" />
        <Con id="3669" src="3667" tgt="2148" wght="1.9121518097505592" />
        <Con id="3674" src="3672" tgt="388" wght="3.1304337120549892" />
        <Con id="3683" src="908" tgt="3121" wght="1.6870757096308542" />
        <Con id="3696" src="2417" tgt="3215" wght="-0.34118643134731574" />
        <Con id="3721" src="1850" tgt="3595" wght="-2.1471519335060929" />
        <Con id="3729" src="2" tgt="3372" wght="4.5443249436281619" />
        <Con id="3731" src="774" tgt="2736" wght="2.3241103266950751" />
        <Con id="3732" src="2388" tgt="3121" wght="-4.80205573396282" />
        <Con id="3744" src="3244" tgt="737" wght="-4.0685019572132353" />
        <Con id="3746" src="3402" tgt="1979" wght="-1.0974229503525603" />
        <Con id="3747" src="2148" tgt="1839" wght="-2.7305083576512335" />
        <Con id="3751" src="1" tgt="3121" wght="-2.5684766856759738" />
        <Con id="3776" src="2462" tgt="637" wght="-2.106641840302875" />
        <Con id="3779" src="1595" tgt="3672" wght="4.5852772365167525" />
        <Con id="3782" src="1670" tgt="3781" wght="0.89590839683771639" />
        <Con id="3783" src="3781" tgt="107" wght="-0.75303930226159621" />
        <Con id="3787" src="3667" tgt="2417" wght="-1.0004234213239647" />
        <Con id="3791" src="3121" tgt="107" wght="4.9876218768442886" />
        <Con id="3792" src="1175" tgt="3672" wght="0.82121971805566185" />
        <Con id="3793" src="304" tgt="3781" wght="2.0677827816334218" />
        <Con id="3801" src="434" tgt="3800" wght="1.6489946631586612" />
        <Con id="3802" src="3800" tgt="8" wght="-0.085078343723111516" />
        <Con id="3810" src="3079" tgt="774" wght="3.6946480371651687" />
        <Con id="3815" src="1913" tgt="872" wght="-1.2929344097179942" />
        <Con id="3817" src="3079" tgt="237" wght="5" />
        <Con id="3824" src="4" tgt="2641" wght="1.7646652513190468" />
        <Con id="3835" src="1366" tgt="2594" wght="1.6852891301626816" />
        <Con id="3836" src="1175" tgt="2394" wght="1.9852269773533373" />
        <Con id="3853" src="1038" tgt="3672" wght="-1.8725111634491862" />
        <Con id="3870" src="3244" tgt="1670" wght="-1.5186228228411025" />
        <Con id="3876" src="908" tgt="3781" wght="3.75935128326105" />
        <Con id="3885" src="1979" tgt="1652" wght="2.4734612521057406" />
        <Con id="3897" src="2170" tgt="10" wght="-4.9330643704161048" />
        <Con id="3901" src="2950" tgt="774" wght="4.1746586334293045" />
        <Con id="3902" src="163" tgt="3630" wght="-4.9712506139119048" />
        <Con id="3920" src="3079" tgt="163" wght="-4.8566788979344722" />
        <Con id="3925" src="3402" tgt="1850" wght="1.0285696362267105" />
        <Con id="3926" src="1595" tgt="1670" wght="4.7905739547551063" />
        <Con id="3938" src="3630" tgt="2451" wght="-1.4390437093655417" />
        <Con id="3948" src="3402" tgt="3781" wght="2.8663644521368994" />
        <Con id="3977" src="2641" tgt="3976" wght="-0.037588699120966074" />
        <Con id="3978" src="3976" tgt="1038" wght="-5" />
        <Con id="3988" src="3800" tgt="1038" wght="-4.9905639830340061" />
        <Con id="3993" src="3800" tgt="1839" wght="2.9700648305001249" />
        <Con id="3999" src="3800" tgt="6" wght="1.3719654416027613" />
        <Con id="4001" src="428" tgt="2394" wght="0.33344387157238486" />
        <Con id="4002" src="3215" tgt="3630" wght="4.5128266980857923" />
        <Con id="4026" src="1" tgt="2462" wght="4.2650989862324176" />
        <Con id="4033" src="2462" tgt="3976" wght="-4.9830781938830633" />
        <Con id="4050" src="1979" tgt="3454" wght="1.3729780581430651" />
        <Con id="4057" src="3244" tgt="3672" wght="4.9824696943583842" />
        <Con id="4073" src="1652" tgt="3121" wght="0.2230197377013689" />
        <Con id="4097" src="3976" tgt="7" wght="0.42438271623123353" />
        <Con id="4098" src="2611" tgt="2594" wght="-1.8411106980545362" />
        <Con id="4101" src="3244" tgt="8" wght="1.5544287367555845" />
        <Con id="4102" src="684" tgt="3781" wght="1.46158541556658" />
        <Con id="4108" src="350" tgt="4107" wght="3.7389364743723874" />
        <Con id="4109" src="4107" tgt="7" wght="2.9457235246171405" />
        <Con id="4118" src="2417" tgt="4107" wght="4.244523498690012" />
        <Con id="4119" src="641" tgt="3215" wght="1.2841738341376185" />
        <Con id="4123" src="3630" tgt="2859" wght="1.5018146300544319" />
        <Con id="4143" src="237" tgt="1652" wght="3.0610692935891217" />
        <Con id="4145" src="908" tgt="3160" wght="2.0815041691735328" />
        <Con id="4146" src="1781" tgt="2394" wght="0.7663179195510722" />
        <Con id="4153" src="2950" tgt="3672" wght="0.36905463003236827" />
        <Con id="4154" src="3454" tgt="6" wght="4.9924714145239477" />
        <Con id="4156" src="3121" tgt="3160" wght="-5" />
        <Con id="4157" src="3402" tgt="3160" wght="2.1591382018570031" />
        <Con id="4174" src="2462" tgt="434" wght="0.56044610864449" />
        <Con id="4175" src="2827" tgt="3402" wght="1.7603159195990392" />
        <Con id="4183" src="4181" tgt="774" wght="-4.8037966935140473" />
        <Con id="4221" src="3079" tgt="376" wght="-1.6011368185420958" />
        <Con id="4222" src="2" tgt="1850" wght="-4.1608609036118924" />
        <Con id="4232" src="3667" tgt="3595" wght="-2.7741730699718445" />
        <Con id="4233" src="2736" tgt="3160" wght="2.8367035106695844" />
        <Con id="4238" src="1366" tgt="3672" wght="4.06637127045542" />
        <Con id="4240" src="3667" tgt="434" wght="0.75041366451231317" />
        <Con id="4243" src="2417" tgt="3800" wght="0.94632001667771537" />
        <Con id="4267" src="3976" tgt="6" wght="-2.375568399274036" />
        <Con id="4268" src="637" tgt="2859" wght="-3.1684094937441412" />
        <Con id="4275" src="3402" tgt="107" wght="-3.0465186920129823" />
        <Con id="4279" src="4181" tgt="3372" wght="-2.4949308281726257" />
        <Con id="4283" src="3667" tgt="2950" wght="2.6177739096445034" />
        <Con id="4296" src="4294" tgt="637" wght="3.1112790041201923" />
        <Con id="4300" src="237" tgt="4299" wght="0.67648228111913133" />
        <Con id="4301" src="4299" tgt="304" wght="4.5991505862466449" />
        <Con id="4310" src="350" tgt="3630" wght="2.7433898795874967" />
        <Con id="4314" src="1724" tgt="4299" wght="-1.6260859861648167" />
        <Con id="4320" src="2" tgt="3976" wght="2.0472051942189511" />
        <Con id="4326" src="3079" tgt="4299" wght="2.4912106478325917" />
        <Con id="4331" src="892" tgt="4330" wght="4.562035191073301" />
        <Con id="4332" src="4330" tgt="9" wght="1.2634745098257489" />
        <Con id="4334" src="3976" tgt="2394" wght="-0.20700984562234392" />
        <Con id="4335" src="3595" tgt="1652" wght="0.94999264790768612" />
        <Con id="4341" src="434" tgt="4330" wght="3.9189686467340659" />
        <Con id="4351" src="3244" tgt="350" wght="-1.5277259268142178" />
        <Con id="4353" src="3" tgt="2594" wght="-1.9212357704213461" />
        <Con id="4366" src="1175" tgt="4107" wght="-0.97505492475442312" />
        <Con id="4377" src="3667" tgt="3781" wght="-2.9479142016407671" />
        <Con id="4382" src="4299" tgt="2594" wght="-3.4806849528104067" />
        <Con id="4393" src="0" tgt="4392" wght="-0.1518064748784376" />
        <Con id="4401" src="3976" tgt="1670" wght="-1.0242299820219172" />
        <Con id="4403" src="2611" tgt="3160" wght="4.0271796710772385" />
        <Con id="4465" src="1595" tgt="4299" wght="2.2389129684494908" />
        <Con id="4466" src="4392" tgt="388" wght="3.7897851366367461" />
        <Con id="4471" src="2369" tgt="4181" wght="-5" />
        <Con id="4479" src="774" tgt="4294" wght="-1.5512246348759848" />
        <Con id="4484" src="3800" tgt="2148" wght="-2.5507872852649718" />
        <Con id="4493" src="3215" tgt="1724" wght="3.3512767396830716" />
        <Con id="4495" src="3215" tgt="966" wght="4.0916989188677055" />
        <Con id="4497" src="2417" tgt="1652" wght="-4.24067907998952" />
        <Con id="4506" src="1850" tgt="6" wght="-2.399046788498183" />
        <Con id="4523" src="2462" tgt="3672" wght="2.8883883376699715" />
        <Con id="4528" src="641" tgt="3454" wght="0.45992734425381165" />
        <Con id="4537" src="2827" tgt="3215" wght="-0.25578310450719366" />
        <Con id="4545" src="2462" tgt="9" wght="-3.4229580667830617" />
        <Con id="4559" src="3079" tgt="2451" wght="2.534429451039224" />
        <Con id="4561" src="2369" tgt="3800" wght="-0.81974220479651949" />
        <Con id="4579" src="237" tgt="3781" wght="5" />
        <Con id="4582" src="4181" tgt="3672" wght="1.4192188523779343" />
        <Con id="4583" src="1652" tgt="3630" wght="1.4857141578933901" />
        <Con id="4590" src="237" tgt="3630" wght="4.0040204182299828" />
        <Con id="4592" src="1781" tgt="3454" wght="-3.1530045617770628" />
        <Con id="4595" src="4330" tgt="2736" wght="-0.79469638250502228" />
        <Con id="4609" src="2827" tgt="3121" wght="5" />
        <Con id="4619" src="892" tgt="3976" wght="0.46602336715069625" />
        <Con id="4621" src="3976" tgt="388" wght="1.3076191873931051" />
        <Con id="4639" src="1595" tgt="3976" wght="-1.9633524783501188" />
        <Con id="4640" src="1979" tgt="3244" wght="-3.1476021960297933" />
        <Con id="4646" src="1850" tgt="4299" wght="-2.241199784912169" />
        <Con id="4656" src="3079" tgt="4655" wght="2.1541358428379569" />
        <Con id="4663" src="2417" tgt="4181" wght="0.27680789369491676" />
        <Con id="4664" src="3244" tgt="388" wght="-4.8850417658608691" />
        <Con id="4669" src="1979" tgt="3672" wght="4.09001954504826" />
        <Con id="4673" src="4392" tgt="2611" wght="-3.9259546234187024" />
        <Con id="4676" src="2462" tgt="4655" wght="2.2402154774941754" />
        <Con id="4685" src="3079" tgt="872" wght="3.3497940551838044" />
        <Con id="4692" src="3781" tgt="10" wght="-0.665446675482249" />
        <Con id="4699" src="1" tgt="4698" wght="-1.111941996170247" />
        <Con id="4700" src="4698" tgt="1652" wght="3.3428139103272296" />
        <Con id="4701" src="3372" tgt="9" wght="4.990544033521509" />
        <Con id="4707" src="4655" tgt="376" wght="-1.1545580237428352" />
        <Con id="4717" src="3402" tgt="6" wght="1.8050850902432665" />
        <Con id="4722" src="2950" tgt="4721" wght="2.6424583434244875" />
        <Con id="4723" src="4721" tgt="2394" wght="-3.6905767857181386" />
        <Con id="4737" src="4721" tgt="107" wght="4.4047579809785775" />
        <Con id="4756" src="2148" tgt="4330" wght="-3.3276501979359958" />
        <Con id="4762" src="892" tgt="4655" wght="0.077520681307884282" />
        <Con id="4779" src="966" tgt="4299" wght="1.003075469689279" />
        <Con id="4787" src="2827" tgt="434" wght="-3.83716468165212" />
        <Con id="4795" src="1595" tgt="3781" wght="3.5075397174780125" />
        <Con id="4804" src="4655" tgt="1424" wght="-2.8229540006048262" />
        <Con id="4805" src="4655" tgt="3160" wght="-1.5941646520375468" />
        <Con id="4807" src="4294" tgt="304" wght="0.44907420848618418" />
        <Con id="4808" src="0" tgt="3672" wght="-1.2214792584494423" />
        <Con id="4811" src="2641" tgt="737" wght="2.15532612632115" />
        <Con id="4818" src="549" tgt="2950" wght="-5" />
        <Con id="4819" src="3800" tgt="1670" wght="0.16424687974592631" />
        <Con id="4831" src="2369" tgt="376" wght="-3.5762588569786251" />
        <Con id="4834" src="4330" tgt="163" wght="-2.3940396856736843" />
        <Con id="4843" src="4" tgt="4107" wght="1.0584771181129118" />
        <Con id="4860" src="4698" tgt="2859" wght="-2.42197726929256" />
        <Con id="4871" src="4655" tgt="1979" wght="1.4974005714547736" />
        <Con id="4876" src="3372" tgt="1670" wght="3.8986648171546512" />
        <Con id="4882" src="2641" tgt="2594" wght="2.6101277607006721" />
        <Con id="4913" src="376" tgt="3630" wght="4.6639929826797859" />
        <Con id="4938" src="4698" tgt="428" wght="-0.55291601138315549" />
        <Con id="4946" src="2394" tgt="1687" wght="4.2134850122746643" />
        <Con id="4952" src="1781" tgt="4294" wght="2.384176826388372" />
        <Con id="4957" src="2417" tgt="2736" wght="-5" />
        <Con id="4965" src="2611" tgt="3372" wght="-1.1052972710577555" />
        <Con id="4967" src="1687" tgt="3781" wght="5" />
        <Con id="4978" src="3079" tgt="1687" wght="3.4399854061578665" />
        <Con id="4982" src="4181" tgt="4107" wght="4.9645189039656872" />
        <Con id="4997" src="3244" tgt="1687" wght="5" />
        <Con id="5004" src="908" tgt="3402" wght="-1.0608375181590841" />
        <Con id="5018" src="4721" tgt="2859" wght="2.8581544989719987" />
        <Con id="5053" src="4698" tgt="966" wght="4.0633763752281888" />
        <Con id="5056" src="1595" tgt="3667" wght="4.82595257100067" />
        <Con id="5073" src="3672" tgt="2594" wght="-0.475587113471584" />
        <Con id="5082" src="1366" tgt="4107" wght="3.2381668757539095" />
        <Con id="5099" src="3079" tgt="3672" wght="-4.6407172082660164" />
        <Con id="5116" src="4721" tgt="6" wght="2.3541454028289079" />
        <Con id="5134" src="3976" tgt="4330" wght="-4.9197998939103043" />
        <Con id="5139" src="4" tgt="3121" wght="-0.62050916829356417" />
        <Con id="5143" src="3454" tgt="2394" wght="4.1120810586172132" />
        <Con id="5147" src="4392" tgt="2827" wght="4.2763959593724312" />
        <Con id="5155" src="1913" tgt="3781" wght="3.0626448986213672" />
        <Con id="5163" src="1850" tgt="4915" wght="4.7082813176249472" />
        <Con id="5183" src="4698" tgt="1913" wght="-4.9664603939395509" />
        <Con id="5193" src="4915" tgt="1724" wght="0.90862337862117726" />
        <Con id="5225" src="856" tgt="4330" wght="-4.2840633266375336" />
        <Con id="5235" src="3372" tgt="2594" wght="3.8680550849200164" />
        <Con id="5236" src="2641" tgt="2170" wght="-2.1861546477288631" />
        <Con id="5254" src="5" tgt="3079" wght="-3.5984183308281761" />
        <Con id="5287" src="4294" tgt="4915" wght="-0.16716508097796412" />
        <Con id="5292" src="5" tgt="4294" wght="4.4342096197485441" />
        <Con id="5299" src="2417" tgt="2859" wght="-2.8426561807035413" />
        <Con id="5321" src="1366" tgt="3781" wght="-1.3309915202114571" />
        <Con id="5323" src="4721" tgt="872" wght="2.3846248977668054" />
        <Con id="5347" src="0" tgt="4181" wght="-3.9380113057213149" />
        <Con id="5367" src="3244" tgt="107" wght="5" />
        <Con id="5373" src="4392" tgt="428" wght="4.0340150473368555" />
        <Con id="5374" src="3667" tgt="4655" wght="-1.5703450131969019" />
        <Con id="5377" src="3800" tgt="1366" wght="4.9759879398732716" />
        <Con id="5379" src="2369" tgt="5378" wght="-4.2236598179667766" />
        <Con id="5380" src="5378" tgt="304" wght="1.766077850029955" />
        <Con id="5383" src="2369" tgt="4721" wght="-3.1416722876735288" />
        <Con id="5395" src="3630" tgt="4107" wght="0.93873318412324458" />
        <Con id="5405" src="2950" tgt="3160" wght="-1.8002694415445324" />
        <Con id="5407" src="3595" tgt="5406" wght="3.7726903040013871" />
        <Con id="5408" src="5406" tgt="3976" wght="-4.2561116001022041" />
        <Con id="5413" src="5406" tgt="3672" wght="1.5716640053201689" />
        <Con id="5424" src="4392" tgt="5423" wght="2.6282126084649255" />
        <Con id="5425" src="5423" tgt="1652" wght="0.86071571621486953" />
        <Con id="5431" src="2611" tgt="5378" wght="-0.65666499142471935" />
        <Con id="5432" src="2170" tgt="4330" wght="-2.5262152747991866" />
        <Con id="5433" src="3667" tgt="4915" wght="-0.749794676888027" />
        <Con id="5439" src="0" tgt="3976" wght="5" />
        <Con id="5451" src="4915" tgt="5450" wght="-1.9426050534450727" />
        <Con id="5452" src="5450" tgt="350" wght="-5" />
        <Con id="5460" src="3800" tgt="2394" wght="5" />
        <Con id="5469" src="2388" tgt="3672" wght="0.16354597577901855" />
        <Con id="5483" src="5481" tgt="7" wght="3.8662406387826889" />
        <Con id="5490" src="107" tgt="5489" wght="4.736004729189478" />
        <Con id="5491" src="5489" tgt="3630" wght="-1.4619953110684363" />
        <Con id="5498" src="4330" tgt="5497" wght="2.0870176656171679" />
        <Con id="5501" src="3402" tgt="3454" wght="-0.19027995644219983" />
        <Con id="5506" src="3" tgt="3454" wght="-3.0819401265533433" />
        <Con id="5509" src="1366" tgt="5489" wght="-0.27007517641471246" />
        <Con id="5512" src="4392" tgt="1781" wght="1.4364938210803924" />
        <Con id="5519" src="3976" tgt="1687" wght="-2.9533329322598512" />
        <Con id="5538" src="2369" tgt="3402" wght="-0.0544696216142326" />
        <Con id="5547" src="0" tgt="4698" wght="0.91193692704593676" />
        <Con id="5574" src="1687" tgt="5497" wght="-5" />
        <Con id="5575" src="2827" tgt="4915" wght="3.0948128250734279" />
        <Con id="5599" src="4655" tgt="5378" wght="3.4588565486502345" />
        <Con id="5606" src="5604" tgt="434" wght="-0.2444533835488103" />
        <Con id="5635" src="2394" tgt="5497" wght="1.9983381708909214" />
        <Con id="5651" src="774" tgt="3595" wght="1.6788924245150791" />
        <Con id="5655" src="5653" tgt="1175" wght="0.90369284817813411" />
        <Con id="5659" src="376" tgt="5423" wght="-1.8263632234920895" />
        <Con id="5669" src="2462" tgt="3667" wght="4.5910518528619875" />
        <Con id="5670" src="3" tgt="5423" wght="-3.704708321247046" />
        <Con id="5676" src="856" tgt="4655" wght="1.1922373133476332" />
        <Con id="5677" src="428" tgt="5481" wght="-4.10551344489261" />
        <Con id="5685" src="376" tgt="5684" wght="4.9908113666999805" />
        <Con id="5686" src="5684" tgt="998" wght="-1.6438331299332285" />
        <Con id="5693" src="3079" tgt="4294" wght="-4.7873869050437685" />
        <Con id="5709" src="5684" tgt="2736" wght="1.5495052203751212" />
        <Con id="5713" src="3121" tgt="5489" wght="-2.3009830920714238" />
        <Con id="5727" src="4655" tgt="3976" wght="-0.68696152601534732" />
        <Con id="5728" src="3672" tgt="3630" wght="-1.2008754592346724" />
        <Con id="5736" src="1670" tgt="5481" wght="5" />
        <Con id="5737" src="5489" tgt="5481" wght="3.4406178813102994" />
        <Con id="5742" src="3244" tgt="5450" wght="2.8701695254166539" />
        <Con id="5745" src="1595" tgt="3630" wght="-2.6329313683125553" />
        <Con id="5771" src="5653" tgt="388" wght="-3.5403548213549771" />
        <Con id="5775" src="1175" tgt="5774" wght="-2.3400507334861906" />
        <Con id="5776" src="5774" tgt="237" wght="0.0042408239096403122" />
        <Con id="5788" src="0" tgt="5787" wght="3.4126248708409408" />
        <Con id="5789" src="5787" tgt="1366" wght="4.4262617953242724" />
        <Con id="5790" src="908" tgt="5774" wght="1.4092780603095889" />
        <Con id="5792" src="3454" tgt="5450" wght="-1.9834483703666463" />
        <Con id="5796" src="2641" tgt="1670" wght="-4.0405875538181064" />
        <Con id="5808" src="4181" tgt="3630" wght="5" />
        <Con id="5818" src="350" tgt="5481" wght="-1.3241247201109518" />
        <Con id="5820" src="3" tgt="5653" wght="1.4759783658516998" />
        <Con id="5823" src="5787" tgt="304" wght="-2.1296612196593565" />
        <Con id="5829" src="5378" tgt="3372" wght="0.23746704183650191" />
        <Con id="5842" src="4330" tgt="3244" wght="4.6704759189573277" />
        <Con id="5843" src="641" tgt="5653" wght="-1.6055708053408337" />
        <Con id="5850" src="1595" tgt="5849" wght="2.1726657416775854" />
        <Con id="5851" src="5849" tgt="4698" wght="-0.98304458028673791" />
        <Con id="5856" src="4698" tgt="4299" wght="-0.8485480061446955" />
        <Con id="5862" src="3667" tgt="4392" wght="-4.9589889139810772" />
        <Con id="5876" src="4181" tgt="1913" wght="1.9996439497914948" />
        <Con id="5881" src="4" tgt="5880" wght="-0.46766834553177372" />
        <Con id="5882" src="5880" tgt="1913" wght="5" />
        <Con id="5904" src="3595" tgt="4294" wght="-0.21396681290284944" />
        <Con id="5920" src="4181" tgt="2594" wght="1.0004986067844406" />
        <Con id="5939" src="1" tgt="5450" wght="-3.62980881053035" />
        <Con id="5940" src="4" tgt="5849" wght="-3.845965388370991" />
        <Con id="5944" src="4294" tgt="2594" wght="4.9955494723418719" />
        <Con id="5950" src="3215" tgt="5489" wght="2.7498325242971142" />
        <Con id="5953" src="1595" tgt="5952" wght="-0.86217453246711107" />
        <Con id="5954" src="5952" tgt="641" wght="3.6217930821413291" />
        <Con id="5958" src="4698" tgt="376" wght="0.85024690939030423" />
        <Con id="5961" src="2" tgt="5960" wght="3.2867185381741337" />
        <Con id="5962" src="5960" tgt="428" wght="-4.0836261925507529" />
        <Con id="5969" src="3372" tgt="5481" wght="-4.6096292814561455" />
        <Con id="5971" src="5" tgt="3454" wght="-0.37348409826209095" />
        <Con id="5972" src="4915" tgt="5489" wght="-0.61395390225801338" />
        <Con id="5976" src="5774" tgt="1724" wght="-0.62729957860061758" />
        <Con id="5977" src="5774" tgt="5880" wght="-4.3077982978000371" />
        <Con id="5984" src="892" tgt="4181" wght="1.7272758688534935" />
        <Con id="5986" src="107" tgt="5481" wght="0.18965091957575284" />
        <Con id="5987" src="1595" tgt="5378" wght="-2.8788369614630938" />
        <Con id="5992" src="1850" tgt="4655" wght="-0.33930502094433285" />
        <Con id="6014" src="4698" tgt="2736" wght="3.6121863848231097" />
        <Con id="6034" src="4330" tgt="1839" wght="-1.4329496651664471" />
        <Con id="6044" src="428" tgt="5774" wght="-1.857531718646793" />
        <Con id="6049" src="6047" tgt="2451" wght="-1.6641579104371351" />
        <Con id="6052" src="5684" tgt="5880" wght="2.4906100740939014" />
        <Con id="6087" src="5880" tgt="3454" wght="-4.1876725974198354" />
        <Con id="6099" src="4915" tgt="107" wght="2.0983586847203628" />
        <Con id="6100" src="5849" tgt="5787" wght="-2.5023995142857665" />
        <Con id="6110" src="5653" tgt="350" wght="-0.75215859669282226" />
        <Con id="6119" src="4" tgt="2736" wght="4.1412910774908473" />
        <Con id="6126" src="2736" tgt="5481" wght="2.7515304973348975" />
        <Con id="6128" src="856" tgt="3976" wght="4.3842528557928064" />
        <Con id="6131" src="2" tgt="4698" wght="-5" />
        <Con id="6157" src="5960" tgt="966" wght="3.9322385201609533" />
        <Con id="6161" src="684" tgt="3402" wght="3.1780214073290503" />
        <Con id="6162" src="5849" tgt="2170" wght="3.5721641746465074" />
        <Con id="6164" src="2369" tgt="4698" wght="1.7902240836581584" />
        <Con id="6169" src="3" tgt="5489" wght="-0.31311570138651462" />
        <Con id="6172" src="3800" tgt="1979" wght="4.3220408229979244" />
        <Con id="6181" src="1724" tgt="6047" wght="-0.51769173687632142" />
        <Con id="6183" src="5" tgt="6182" wght="1.53121559388862" />
        <Con id="6184" src="6182" tgt="641" wght="-3.6094228385717626" />
        <Con id="6189" src="4655" tgt="4299" wght="1.3413238550104976" />
        <Con id="6201" src="2394" tgt="5450" wght="-2.3048149840906262" />
        <Con id="6243" src="434" tgt="5774" wght="2.6914878825770767" />
        <Con id="6275" src="376" tgt="6274" wght="-1.5209053972276398" />
        <Con id="6276" src="6274" tgt="388" wght="-0.71991283693768049" />
        <Con id="6279" src="4330" tgt="4721" wght="0.46459375825692767" />
        <Con id="6280" src="684" tgt="2388" wght="-1.3591688447961954" />
        <Con id="6283" src="2611" tgt="4299" wght="0.37923261608083092" />
        <Con id="6304" src="3672" tgt="237" wght="-3.09918474917768" />
        <Con id="6312" src="2148" tgt="4294" wght="4.6481608526247422" />
        <Con id="6323" src="5604" tgt="1670" wght="-0.71444579200470382" />
        <Con id="6336" src="4392" tgt="6335" wght="2.7852813532826324" />
        <Con id="6337" src="6335" tgt="304" wght="0.40047505355526136" />
        <Con id="6351" src="4698" tgt="5489" wght="4.9439257614447811" />
        <Con id="6357" src="3" tgt="6047" wght="3.3092491473769141" />
        <Con id="6364" src="3800" tgt="5880" wght="-4.9333875456279879" />
        <Con id="6375" src="5423" tgt="3160" wght="-3.7265787096281433" />
        <Con id="6380" src="1913" tgt="6379" wght="1.9428365138470838" />
        <Con id="6381" src="6379" tgt="998" wght="0.330838844479054" />
        <Con id="6392" src="5450" tgt="3372" wght="-1.6778925878001762" />
        <Con id="6402" src="3800" tgt="428" wght="2.2072076901074089" />
        <Con id="6412" src="6335" tgt="6" wght="2.9374254043428212" />
        <Con id="6414" src="5653" tgt="3595" wght="1.22515311404904" />
        <Con id="6434" src="2611" tgt="5489" wght="-4.7634319358977235" />
        <Con id="6446" src="3667" tgt="6274" wght="-4.9969543735387756" />
        <Con id="6456" src="1366" tgt="6047" wght="5" />
        <Con id="6459" src="3595" tgt="6274" wght="5" />
        <Con id="6460" src="4181" tgt="5497" wght="-1.1045039561377106" />
        <Con id="6461" src="5653" tgt="10" wght="-4.9986435229670194" />
        <Con id="6468" src="2" tgt="5604" wght="-4.5810179341589716" />
        <Con id="6469" src="5952" tgt="1724" wght="-4.2785423948504242" />
        <Con id="6474" src="5684" tgt="872" wght="3.2681097335252245" />
        <Con id="6500" src="5497" tgt="304" wght="1.8769013090059161" />
        <Con id="6506" src="3215" tgt="10" wght="0.84495643934362574" />
        <Con id="6528" src="5952" tgt="6182" wght="-1.9232417954018783" />
        <Con id="6540" src="3976" tgt="1839" wght="-5" />
        <Con id="6553" src="6047" tgt="4299" wght="0.52512171360669524" />
        <Con id="6555" src="2148" tgt="1652" wght="2.3750988013864589" />
        <Con id="6557" src="1850" tgt="5378" wght="0.43739989515750033" />
        <Con id="6568" src="6182" tgt="3215" wght="0.25757306888377862" />
        <Con id="6591" src="2" tgt="6590" wght="-4.1814576970119948" />
        <Con id="6592" src="6590" tgt="2170" wght="-2.3573703531886894" />
        <Con id="6597" src="6274" tgt="3976" wght="2.6855774383320155" />
        <Con id="6609" src="3215" tgt="2641" wght="2.7299030705995149" />
        <Con id="6614" src="3402" tgt="5787" wght="1.5925397460161361" />
        <Con id="6623" src="3667" tgt="6182" wght="4.8861455785346264" />
        <Con id="6626" src="6182" tgt="304" wght="-1.9434877938585009" />
        <Con id="6628" src="5497" tgt="6627" wght="4.999391036625445" />
        <Con id="6629" src="6627" tgt="107" wght="4.2570969230070421" />
        <Con id="6635" src="4915" tgt="2388" wght="0.36940993807241113" />
        <Con id="6642" src="5774" tgt="3121" wght="-4.4024948315478261" />
        <Con id="6643" src="3595" tgt="5774" wght="1.3242830195773729" />
        <Con id="6645" src="3667" tgt="1670" wght="-2.8598184417933226" />
        <Con id="6648" src="5653" tgt="4299" wght="-0.79795702135200819" />
        <Con id="6661" src="5604" tgt="376" wght="-1.9177406348963442" />
        <Con id="6665" src="1175" tgt="6664" wght="4.2592005546199578" />
        <Con id="6666" src="6664" tgt="10" wght="0.75335628324291259" />
        <Con id="6696" src="5604" tgt="3630" wght="-3.8688575549785611" />
        <Con id="6701" src="2641" tgt="6700" wght="2.6072560795452806" />
        <Con id="6702" src="6700" tgt="2394" wght="4.75149264854026" />
        <Con id="6711" src="6700" tgt="6274" wght="0.52286174279574316" />
        <Con id="6716" src="6182" tgt="4299" wght="4.9795299913554638" />
        <Con id="6717" src="856" tgt="3781" wght="4.1862369752393169" />
        <Con id="6719" src="6664" tgt="3244" wght="-4.9167073378973249" />
        <Con id="6723" src="2170" tgt="3781" wght="-1.4860940519938282" />
        <Con id="6726" src="684" tgt="6664" wght="3.4623841534686233" />
        <Con id="6727" src="5653" tgt="5378" wght="0.78409525620695875" />
        <Con id="6728" src="5" tgt="3976" wght="2.3662470952371" />
        <Con id="6745" src="3079" tgt="6335" wght="-4.9692256068612446" />
        <Con id="6770" src="549" tgt="6769" wght="-0.026516155091707683" />
        <Con id="6771" src="6769" tgt="3402" wght="4.4612973147191486" />
        <Con id="6773" src="3402" tgt="1652" wght="-0.11616299994796264" />
        <Con id="6775" src="5423" tgt="6274" wght="-0.45235792316362206" />
        <Con id="6785" src="6700" tgt="872" wght="-1.6421422083799939" />
        <Con id="6786" src="1850" tgt="5423" wght="3.7690893258255511" />
        <Con id="6826" src="641" tgt="6825" wght="1.0392720249746925" />
        <Con id="6827" src="6825" tgt="2170" wght="2.9289322277745264" />
        <Con id="6841" src="6769" tgt="637" wght="4.1909295180812478" />
        <Con id="6853" src="1" tgt="6852" wght="0.092277794886855821" />
        <Con id="6854" src="6852" tgt="428" wght="0.66847679742113353" />
        <Con id="6884" src="1652" tgt="5481" wght="-3.9848666559528709" />
        <Con id="6886" src="6700" tgt="3781" wght="-2.1205926272882913" />
        <Con id="6887" src="4330" tgt="3372" wght="1.1655238320070107" />
        <Con id="6916" src="3121" tgt="4107" wght="-2.3940372553596587" />
        <Con id="6939" src="5787" tgt="3372" wght="0.77775252211570722" />
        <Con id="6942" src="5653" tgt="6274" wght="-2.1623837530527474" />
        <Con id="6943" src="0" tgt="5378" wght="-2.943848329365633" />
        <Con id="6950" src="3595" tgt="1724" wght="-0.944767161546305" />
        <Con id="6958" src="388" tgt="6627" wght="-0.15000746569610751" />
        <Con id="6963" src="4107" tgt="5481" wght="4.8392542362117918" />
        <Con id="6966" src="6047" tgt="163" wght="1.7143804913975842" />
        <Con id="6981" src="4655" tgt="6825" wght="-4.9593773071380074" />
        <Con id="6990" src="908" tgt="2641" wght="1.0294307019500617" />
        <Con id="7021" src="6852" tgt="549" wght="-4.9863099464659895" />
        <Con id="7035" src="5952" tgt="10" wght="1.8342642392609949" />
        <Con id="7045" src="376" tgt="5489" wght="-3.9973688297625491" />
        <Con id="7048" src="6852" tgt="2462" wght="4.3414207809358567" />
        <Con id="7055" src="6852" tgt="10" wght="1.4607210177653975" />
        <Con id="7063" src="5684" tgt="6627" wght="-1.4901691288223025" />
        <Con id="7067" src="3402" tgt="6590" wght="-4.53793464754347" />
        <Con id="7068" src="684" tgt="6700" wght="2.8045208953922618" />
        <Con id="7071" src="6825" tgt="3976" wght="3.3756711183902617" />
        <Con id="7079" src="5774" tgt="2859" wght="1.4342635256556486" />
        <Con id="7080" src="3976" tgt="3244" wght="-1.5278851124474042" />
        <Con id="7086" src="2369" tgt="4294" wght="-3.2004248596023559" />
        <Con id="7090" src="6852" tgt="9" wght="-2.2061993922412486" />
        <Con id="7103" src="388" tgt="5481" wght="4.9555650790244483" />
        <Con id="7104" src="5960" tgt="1839" wght="-4.9466376946853128" />
        <Con id="7106" src="3402" tgt="1366" wght="1.7117025487456343" />
        <Con id="7131" src="3781" tgt="1424" wght="0.5839703278739693" />
        <Con id="7132" src="1038" tgt="5684" wght="-2.7921592914389408" />
        <Con id="7164" src="5774" tgt="4294" wght="-0.85387273027192256" />
        <Con id="7168" src="4294" tgt="2388" wght="-3.91915668733418" />
        <Con id="7171" src="4181" tgt="2170" wght="2.707663158369201" />
        <Con id="7173" src="3402" tgt="7172" wght="5" />
        <Con id="7174" src="7172" tgt="5653" wght="-2.6224052242903251" />
        <Con id="7185" src="856" tgt="7184" wght="4.37029641424439" />
        <Con id="7192" src="6590" tgt="107" wght="-4.9905046720606929" />
        <Con id="7212" src="1175" tgt="5960" wght="-2.6738694848893081" />
        <Con id="7221" src="1595" tgt="6825" wght="3.5388674184399274" />
        <Con id="7260" src="5604" tgt="5450" wght="1.2788674305679972" />
        <Con id="7277" src="5450" tgt="1687" wght="5" />
        <Con id="7284" src="2859" tgt="4107" wght="1.2083696604892025" />
        <Con id="7288" src="2388" tgt="5450" wght="0.21459628487758575" />
        <Con id="7295" src="737" tgt="7294" wght="4.77508535142988" />
        <Con id="7296" src="7294" tgt="6047" wght="0.2773040189027508" />
        <Con id="7302" src="6335" tgt="5684" wght="0.80188136347991434" />
        <Con id="7312" src="4" tgt="5604" wght="-2.395545500542307" />
        <Con id="7321" src="5653" tgt="3121" wght="-1.7341075447107146" />
        <Con id="7322" src="6182" tgt="3402" wght="-4.0352598989047967" />
        <Con id="7330" src="1850" tgt="7329" wght="-5" />
        <Con id="7331" src="7329" tgt="1175" wght="5" />
        <Con id="7352" src="6274" tgt="5406" wght="-4.25100917040526" />
        <Con id="7366" src="908" tgt="6664" wght="-4.3252875778876509" />
        <Con id="7369" src="3244" tgt="10" wght="1.0917719934167622" />
        <Con id="7373" src="774" tgt="5406" wght="2.0189416055969058" />
        <Con id="7392" src="2641" tgt="6664" wght="1.5289388413769784" />
        <Con id="7393" src="1979" tgt="6825" wght="1.824707696050144" />
        <Con id="7397" src="7172" tgt="388" wght="-4.9822909662925268" />
        <Con id="7433" src="1" tgt="7432" wght="-3.7130106336957316" />
        <Con id="7434" src="7432" tgt="4107" wght="4.8062097477943526" />
        <Con id="7442" src="7329" tgt="5787" wght="-2.91835337295972" />
        <Con id="7476" src="5406" tgt="2388" wght="-1.4078507421436472" />
        <Con id="7507" src="908" tgt="7329" wght="4.8721184180205226" />
        <Con id="7510" src="7172" tgt="5684" wght="-2.8144097492541067" />
        <Con id="7512" src="1038" tgt="6379" wght="-3.2863589839854868" />
        <Con id="7514" src="6627" tgt="4107" wght="2.5784866855161246" />
        <Con id="7532" src="5684" tgt="5450" wght="2.7532752742033364" />
        <Con id="7551" src="6664" tgt="5481" wght="4.9760815576645117" />
        <Con id="7569" src="4721" tgt="2736" wght="-1.3197389411863161" />
        <Con id="7576" src="5" tgt="4698" wght="-4.0602253538323358" />
        <Con id="7578" src="2417" tgt="637" wght="3.629740811419615" />
        <Con id="7580" src="4294" tgt="7579" wght="1.1602343529160914" />
        <Con id="7581" src="7579" tgt="5489" wght="4.20738363545832" />
        <Con id="7588" src="4181" tgt="5960" wght="-1.5519767896076544" />
        <Con id="7593" src="7432" tgt="6590" wght="-0.46576237937409881" />
        <Con id="7618" src="7432" tgt="2641" wght="-1.7572799656498779" />
        <Con id="7672" src="6274" tgt="1652" wght="1.6988277542845154" />
        <Con id="7677" src="4698" tgt="6664" wght="0.67380150002330863" />
        <Con id="7678" src="856" tgt="4721" wght="2.09997259239956" />
        <Con id="7696" src="5774" tgt="872" wght="0.47199381089572406" />
        <Con id="7708" src="6700" tgt="376" wght="4.6903608474417657" />
        <Con id="7735" src="908" tgt="7734" wght="-4.2998351552059084" />
        <Con id="7736" src="7734" tgt="737" wght="5" />
        <Con id="7742" src="4698" tgt="434" wght="-0.079876315536517084" />
        <Con id="7751" src="5880" tgt="107" wght="-2.5472222994729674" />
        <Con id="7768" src="5604" tgt="3595" wght="-3.0698632490288196" />
        <Con id="7774" src="0" tgt="7773" wght="-1.4159253559219389" />
        <Con id="7775" src="7773" tgt="5378" wght="2.4751460350145091" />
        <Con id="7792" src="6274" tgt="6379" wght="-4.0198972122743726" />
        <Con id="7794" src="1687" tgt="6627" wght="1.9526160697482053" />
        <Con id="7804" src="1850" tgt="2394" wght="-3.7698224625996462" />
        <Con id="7807" src="5960" tgt="5774" wght="1.2275876653396154" />
        <Con id="7809" src="304" tgt="7808" wght="-5" />
        <Con id="7810" src="7808" tgt="1424" wght="3.1952015307602122" />
        <Con id="7812" src="7184" tgt="1913" wght="0.13920274061472404" />
        <Con id="7828" src="966" tgt="7827" wght="-3.9077944122254848" />
        <Con id="7829" src="7827" tgt="1652" wght="-1.116121721208136" />
        <Con id="7846" src="7184" tgt="7734" wght="0.72547236457522879" />
        <Con id="7849" src="4721" tgt="3672" wght="-2.8765189554542303" />
        <Con id="7857" src="1979" tgt="7172" wght="-4.3936179694779023" />
        <Con id="7864" src="3079" tgt="7808" wght="4.7501861278321318" />
        <Con id="7876" src="350" tgt="6627" wght="-3.0992657282709537" />
        <Con id="7879" src="388" tgt="7878" wght="-4.9944722164271518" />
        <Con id="7880" src="7878" tgt="163" wght="3.8596898378827218" />
        <Con id="7885" src="6335" tgt="5450" wght="-3.8537095269680055" />
        <Con id="7886" src="2388" tgt="5481" wght="-1.2558021111557067" />
        <Con id="7906" src="163" tgt="5497" wght="-3.8321349176618971" />
        <Con id="7907" src="7734" tgt="6" wght="1.0672800287988071" />
        <Con id="7908" src="1175" tgt="4294" wght="2.6643522905574306" />
        <Con id="7913" src="5" tgt="4330" wght="-0.50952640600869481" />
        <Con id="7922" src="5406" tgt="966" wght="-3.5520778775008366" />
        <Con id="7950" src="1724" tgt="5489" wght="1.1918518885449478" />
        <Con id="7959" src="3215" tgt="163" wght="-1.4932110198904569" />
        <Con id="7970" src="2417" tgt="5604" wght="-4.4728257835406637" />
        <Con id="7971" src="4392" tgt="7734" wght="3.4749485626262162" />
        <Con id="7973" src="5952" tgt="7827" wght="1.9965397426990463" />
        <Con id="7977" src="7172" tgt="7432" wght="1.8819491870702336" />
        <Con id="7982" src="1595" tgt="7981" wght="2.0258133299648762" />
        <Con id="7983" src="7981" tgt="428" wght="4.8549883626424988" />
        <Con id="7992" src="7981" tgt="1670" wght="-1.674992650838941" />
        <Con id="8032" src="6335" tgt="6825" wght="1.2421774160506331" />
        <Con id="8041" src="641" tgt="8040" wght="-0.23654229951628891" />
        <Con id="8042" src="8040" tgt="1038" wght="2.4697383410409977" />
        <Con id="8050" src="8040" tgt="7808" wght="-0.03154762591435202" />
        <Con id="8065" src="7734" tgt="998" wght="-4.938415310467076" />
        <Con id="8067" src="3402" tgt="641" wght="2.2327066760821919" />
        <Con id="8078" src="3244" tgt="4299" wght="1.9725175580656122" />
        <Con id="8094" src="4" tgt="6274" wght="-5" />
        <Con id="8109" src="237" tgt="5489" wght="-3.4479327187240028" />
        <Con id="8111" src="5604" tgt="5774" wght="-3.2917901547625661" />
        <Con id="8124" src="6852" tgt="966" wght="3.3776928328375573" />
        <Con id="8131" src="388" tgt="7579" wght="-0.19223805246782311" />
        <Con id="8132" src="5849" tgt="3454" wght="0.071854882489620242" />
        <Con id="8147" src="5406" tgt="388" wght="0.6149383080331321" />
        <Con id="8157" src="5787" tgt="6590" wght="1.173430451734393" />
        <Con id="8170" src="7172" tgt="5406" wght="-3.256471634191624" />
        <Con id="8173" src="2170" tgt="8172" wght="0.93857698008525525" />
        <Con id="8174" src="8172" tgt="2594" wght="-0.60400903791454552" />
        <Con id="8177" src="2" tgt="6769" wght="-0.5614651400426941" />
        <Con id="8206" src="4392" tgt="7579" wght="3.324156410298801" />
        <Con id="8216" src="908" tgt="5604" wght="1.7340817183144677" />
        <Con id="8220" src="5604" tgt="237" wght="3.1990342388425042" />
        <Con id="8228" src="3402" tgt="5774" wght="2.2512642034352575" />
        <Con id="8231" src="549" tgt="2611" wght="0.065999568951188789" />
        <Con id="8234" src="3402" tgt="2736" wght="-0.34607293543853634" />
        <Con id="8243" src="6335" tgt="2417" wght="2.5241830023916143" />
        <Con id="8275" src="8040" tgt="2859" wght="4.9927577859140531" />
        <Con id="8278" src="6335" tgt="4721" wght="0.81221455987692925" />
        <Con id="8320" src="2611" tgt="7294" wght="-0.7065075605908373" />
        <Con id="8322" src="3" tgt="8321" wght="-5" />
        <Con id="8323" src="8321" tgt="350" wght="-3.7003540675527842" />
        <Con id="8342" src="7329" tgt="2641" wght="3.9173210172421924" />
        <Con id="8344" src="4294" tgt="237" wght="1.6765264773203408" />
        <Con id="8364" src="8172" tgt="7" wght="-1.5105998449990061" />
        <Con id="8367" src="5960" tgt="5880" wght="2.6263689034001487" />
        <Con id="8392" src="4915" tgt="3976" wght="4.233059665940524" />
        <Con id="8393" src="3800" tgt="6590" wght="-5" />
        <Con id="8438" src="1724" tgt="8437" wght="0.66711855156743938" />
        <Con id="8439" src="8437" tgt="8" wght="-2.1115402723477947" />
        <Con id="8455" src="4294" tgt="872" wght="-3.3113115925717285" />
        <Con id="8467" src="2827" tgt="3595" wght="-0.609928244720525" />
        <Con id="8479" src="5849" tgt="4392" wght="1.5019249808735211" />
        <Con id="8489" src="7172" tgt="7981" wght="-2.465380782960815" />
        <Con id="8492" src="3667" tgt="5684" wght="-0.055371806247315983" />
        <Con id="8493" src="7184" tgt="1038" wght="4.4630791144091155" />
        <Con id="8501" src="7294" tgt="8172" wght="-3.9421930838396544" />
        <Con id="8527" src="6664" tgt="3630" wght="-0.297952834183142" />
        <Con id="8532" src="7808" tgt="2859" wght="0.17245932785098605" />
        <Con id="8548" src="892" tgt="7184" wght="3.7319870919242533" />
        <Con id="8587" src="5960" tgt="5684" wght="-1.2341787079931523" />
        <Con id="8592" src="7878" tgt="237" wght="1.161547366156001" />
        <Con id="8603" src="7773" tgt="1595" wght="2.5013441765369517" />
        <Con id="8621" src="4299" tgt="5489" wght="4.3671876741054145" />
        <Con id="8622" src="684" tgt="5787" wght="-2.0738179547891029" />
        <Con id="8629" src="5378" tgt="4299" wght="-4.7346462307051427" />
        <Con id="8651" src="6852" tgt="6379" wght="0.92213176413046982" />
        <Con id="8662" src="7773" tgt="2148" wght="3.6350471413718854" />
        <Con id="8667" src="434" tgt="8666" wght="2.5764928362980406" />
        <Con id="8668" src="8666" tgt="10" wght="4.9696206668785861" />
        <Con id="8703" src="4" tgt="8437" wght="4.3052015534263592" />
        <Con id="8706" src="4392" tgt="6700" wght="-4.9157218187041067" />
        <Con id="8768" src="5880" tgt="2394" wght="-0.055095624455423306" />
        <Con id="8798" src="684" tgt="7827" wght="-4.1354096893423975" />
        <Con id="8812" src="7734" tgt="237" wght="-3.5682338334364441" />
        <Con id="8835" src="3079" tgt="2462" wght="4.5407808799749994" />
        <Con id="8853" src="892" tgt="3372" wght="-2.9575923596153166" />
        <Con id="8859" src="1175" tgt="7579" wght="-4.0568850981071591" />
        <Con id="8881" src="5" tgt="8880" wght="-3.0616062844344429" />
        <Con id="8882" src="8880" tgt="5653" wght="4.579199472374059" />
        <Con id="8885" src="6335" tgt="7579" wght="-1.4488005258458647" />
        <Con id="8887" src="7184" tgt="3215" wght="1.609988741228336" />
        <Con id="8889" src="8321" tgt="5880" wght="2.0069787951987821" />
        <Con id="8893" src="6769" tgt="5653" wght="1.8380846338766317" />
        <Con id="8901" src="2736" tgt="3454" wght="-4.4269226504376542" />
        <Con id="8913" src="5952" tgt="2394" wght="4.3186424162255488" />
        <Con id="8934" src="8880" tgt="3121" wght="1.2252511808122073" />
        <Con id="8980" src="5423" tgt="3630" wght="5" />
        <Con id="8984" src="7432" tgt="5406" wght="2.3110775320159633" />
        <Con id="9021" src="434" tgt="6182" wght="-2.8625770676019853" />
        <Con id="9027" src="856" tgt="9026" wght="0.81951430269850623" />
        <Con id="9028" src="9026" tgt="237" wght="3.560839085715731" />
        <Con id="9034" src="428" tgt="8666" wght="4.9420656007262966" />
        <Con id="9036" src="2950" tgt="163" wght="5" />
        <Con id="9050" src="5849" tgt="9" wght="0.61976541297803855" />
        <Con id="9059" src="7878" tgt="7734" wght="1.921023764903351" />
        <Con id="9066" src="908" tgt="2369" wght="4.1495047376580088" />
        <Con id="9071" src="5849" tgt="7878" wght="-1.1617175546231624" />
        <Con id="9076" src="7981" tgt="5684" wght="-1.2593688266654417" />
        <Con id="9087" src="3215" tgt="6825" wght="2.4237344148040441" />
        <Con id="9094" src="2950" tgt="5880" wght="-0.08389415991943816" />
        <Con id="9107" src="7734" tgt="3160" wght="-1.8309675366642053" />
        <Con id="9136" src="8880" tgt="1724" wght="-2.1916409012787579" />
        <Con id="9168" src="2369" tgt="5684" wght="1.7232287088569982" />
        <Con id="9173" src="641" tgt="5406" wght="2.7525312017025505" />
        <Con id="9198" src="3595" tgt="7878" wght="1.4176606967068111" />
        <Con id="9206" src="4294" tgt="163" wght="-3.1559562279818709" />
        <Con id="9208" src="774" tgt="7808" wght="3.4269965332436203" />
        <Con id="9223" src="5406" tgt="4915" wght="0.7374831290263959" />
        <Con id="9227" src="6335" tgt="4107" wght="-3.9240243773686503" />
        <Con id="9232" src="4181" tgt="7827" wght="-4.95188310384119" />
        <Con id="9292" src="5952" tgt="6590" wght="0.45031042595689458" />
        <Con id="9307" src="2417" tgt="6627" wght="-4.9781263379923528" />
        <Con id="9319" src="684" tgt="6047" wght="3.8037940529976244" />
        <Con id="9327" src="4392" tgt="8666" wght="0.16641891900002248" />
        <Con id="9331" src="2827" tgt="9330" wght="2.2130343319381396" />
        <Con id="9332" src="9330" tgt="5604" wght="-0.260402290119813" />
        <Con id="9368" src="5960" tgt="5481" wght="-3.4940504483197374" />
        <Con id="9382" src="3781" tgt="8" wght="-3.8578766548131482" />
        <Con id="9429" src="5604" tgt="107" wght="3.7116020070675422" />
        <Con id="9462" src="5450" tgt="1724" wght="-2.4523210748237969" />
        <Con id="9473" src="4181" tgt="428" wght="-1.1360152225208011" />
        <Con id="9475" src="434" tgt="9474" wght="-2.4489835686578192" />
        <Con id="9476" src="9474" tgt="376" wght="4.8099127406933757" />
        <Con id="9477" src="4392" tgt="6" wght="-4.1914186810997727" />
        <Con id="9490" src="5684" tgt="3781" wght="-0.79299020920466412" />
        <Con id="9507" src="2641" tgt="5450" wght="-2.6868085444133145" />
        <Con id="9511" src="4698" tgt="3160" wght="3.7812561287634034" />
        <Con id="9515" src="7734" tgt="8437" wght="-0.66455934553000384" />
        <Con id="9542" src="3079" tgt="6590" wght="-5" />
        <Con id="9587" src="7184" tgt="637" wght="-0.28440110524758261" />
        <Con id="9592" src="3667" tgt="9591" wght="-1.3029153725206752" />
        <Con id="9593" src="9591" tgt="3372" wght="-2.0526294252410677" />
        <Con id="9609" src="5880" tgt="237" wght="4.0220765122614655" />
        <Con id="9612" src="6825" tgt="7432" wght="-3.215488273760827" />
        <Con id="9613" src="6274" tgt="1424" wght="-2.381903074969653" />
        <Con id="9623" src="9026" tgt="4107" wght="2.7549826473786578" />
        <Con id="9643" src="0" tgt="6627" wght="2.6037544932270884" />
        <Con id="9686" src="6379" tgt="2859" wght="0.85033403505345562" />
        <Con id="9692" src="1687" tgt="9691" wght="-4.20553961256191" />
        <Con id="9693" src="9691" tgt="2859" wght="3.4744409788586541" />
        <Con id="9718" src="1687" tgt="9717" wght="-3.6831634233114841" />
        <Con id="9719" src="9717" tgt="9" wght="-0.9105483408497107" />
        <Con id="9727" src="2369" tgt="6047" wght="-1.8435011182525489" />
        <Con id="9746" src="1652" tgt="9745" wght="-4.9927057122921061" />
        <Con id="9747" src="9745" tgt="10" wght="4.4546471319430561" />
        <Con id="9754" src="5774" tgt="3672" wght="0.17419841340577033" />
        <Con id="9809" src="9330" tgt="1175" wght="-2.742261543571352" />
        <Con id="9841" src="7329" tgt="4655" wght="4.6502060079801488" />
        <Con id="9858" src="2611" tgt="9857" wght="0.94701475655150025" />
        <Con id="9859" src="9857" tgt="1724" wght="0.312008756985352" />
        <Con id="9872" src="9330" tgt="6047" wght="3.3186654263461373" />
        <Con id="9889" src="2148" tgt="7294" wght="-4.192146984848458" />
        <Con id="9891" src="1724" tgt="9890" wght="-1.5918959922213705" />
        <Con id="9892" src="9890" tgt="872" wght="-2.5764844652912027" />
        <Con id="9908" src="5489" tgt="8437" wght="1.1001783170318917" />
        <Con id="9909" src="5378" tgt="7878" wght="4.1779946996502737" />
        <Con id="9927" src="8666" tgt="9890" wght="1.1112382506838998" />
        <Con id="9940" src="3215" tgt="9939" wght="-1.749715917906824" />
        <Con id="9941" src="9939" tgt="1850" wght="3.22938453614245" />
        <Con id="9953" src="5450" tgt="5378" wght="2.7252868648254989" />
        <Con id="9959" src="9745" tgt="1670" wght="-2.3188527371070422" />
        <Con id="9963" src="9890" tgt="7808" wght="-2.0838007731111241" />
        <Con id="9978" src="5774" tgt="998" wght="-0.98597389434561322" />
        <Con id="9983" src="684" tgt="5653" wght="-0.22316599171802803" />
        <Con id="9995" src="1781" tgt="7878" wght="4.1344130415028735" />
        <Con id="9998" src="684" tgt="3800" wght="-2.7391849387564173" />
        <Con id="10008" src="1595" tgt="10007" wght="3.04963514326721" />
        <Con id="10009" src="10007" tgt="388" wght="5" />
        <Con id="10021" src="6627" tgt="7" wght="4.3024435666193668" />
        <Con id="10022" src="3372" tgt="7808" wght="-0.98806269410801528" />
        <Con id="10025" src="2417" tgt="4698" wght="4.94066792107607" />
        <Con id="10059" src="8880" tgt="908" wght="2.0687993237468985" />
        <Con id="10098" src="7773" tgt="10007" wght="0.77663014279671139" />
        <Con id="10101" src="6769" tgt="1038" wght="4.4657089384818978" />
        <Con id="10117" src="1366" tgt="7827" wght="2.5683973165756511" />
        <Con id="10129" src="3" tgt="9026" wght="3.1967591610853741" />
        <Con id="10160" src="7827" tgt="8321" wght="5" />
        <Con id="10185" src="9026" tgt="7294" wght="0.29376503402863019" />
        <Con id="10186" src="5423" tgt="5960" wght="-0.77707181107778855" />
        <Con id="10188" src="641" tgt="8437" wght="4.2401334996555242" />
        <Con id="10201" src="9330" tgt="9591" wght="3.3643833129821021" />
        <Con id="10208" src="2417" tgt="10207" wght="2.8180271635124914" />
        <Con id="10209" src="10207" tgt="2611" wght="3.7985423424618432" />
        <Con id="10217" src="304" tgt="1424" wght="2.4552219669847397" />
        <Con id="10235" src="2950" tgt="9890" wght="-4.9962182855741624" />
        <Con id="10237" src="5653" tgt="304" wght="-2.1113321246326997" />
        <Con id="10241" src="5604" tgt="10240" wght="-2.5603541312199289" />
        <Con id="10242" src="10240" tgt="7734" wght="2.908849420908191" />
        <Con id="10265" src="8880" tgt="637" wght="-3.8202296421246786" />
        <Con id="10291" src="3976" tgt="5684" wght="3.005601341569287" />
        <Con id="10349" src="4392" tgt="1038" wght="-4.972791964465288" />
        <Con id="10354" src="9939" tgt="2148" wght="-2.7236723843425805" />
        <Con id="10358" src="10240" tgt="6700" wght="-1.5225700754672289" />
        <Con id="10360" src="1839" tgt="9717" wght="-0.053960525194588604" />
        <Con id="10369" src="5952" tgt="10368" wght="5" />
        <Con id="10370" src="10368" tgt="2611" wght="4.5549572041271373" />
        <Con id="10374" src="6664" tgt="6" wght="2.2456449867034523" />
        <Con id="10409" src="6182" tgt="2859" wght="-0.56022335183204608" />
        <Con id="10417" src="7172" tgt="7734" wght="0.34956438975691057" />
        <Con id="10442" src="3781" tgt="8172" wght="-3.3357396625110325" />
        <Con id="10452" src="9691" tgt="6379" wght="-2.6508900306441894" />
        <Con id="10477" src="6852" tgt="10368" wght="2.7886916603985292" />
        <Con id="10481" src="3800" tgt="10207" wght="0.020005705617723413" />
        <Con id="10506" src="6700" tgt="428" wght="1.5472682023382454" />
        <Con id="10511" src="7734" tgt="9" wght="-3.3616720618007863" />
        <Con id="10513" src="9890" tgt="5489" wght="-4.5452607836694412" />
        <Con id="10554" src="7432" tgt="9857" wght="4.7005023388192058" />
        <Con id="10557" src="2451" tgt="9717" wght="-3.3832500132922867" />
        <Con id="10578" src="7773" tgt="7734" wght="-4.3701264495030046" />
        <Con id="10588" src="4915" tgt="9717" wght="-1.2367027532309294" />
      </Connections>
    </Network>
  </Networks>
</Root>